node {
  name: "global_step/Initializer/zeros/shape_as_tensor"
  op: "Const"
  attr {
    key: "_class"
    value {
      list {
        s: "loc:@global_step"
      }
    }
  }
  attr {
    key: "_output_shapes"
    value {
      list {
        shape {
          dim {
          }
        }
      }
    }
  }
  attr {
    key: "dtype"
    value {
      type: DT_INT32
    }
  }
  attr {
    key: "value"
    value {
      tensor {
        dtype: DT_INT32
        tensor_shape {
          dim {
          }
        }
      }
    }
  }
}
node {
  name: "global_step/Initializer/zeros/Const"
  op: "Const"
  attr {
    key: "_class"
    value {
      list {
        s: "loc:@global_step"
      }
    }
  }
  attr {
    key: "_output_shapes"
    value {
      list {
        shape {
        }
      }
    }
  }
  attr {
    key: "dtype"
    value {
      type: DT_INT64
    }
  }
  attr {
    key: "value"
    value {
      tensor {
        dtype: DT_INT64
        tensor_shape {
        }
        int64_val: 0
      }
    }
  }
}
node {
  name: "global_step/Initializer/zeros"
  op: "Fill"
  input: "global_step/Initializer/zeros/shape_as_tensor"
  input: "global_step/Initializer/zeros/Const"
  attr {
    key: "T"
    value {
      type: DT_INT64
    }
  }
  attr {
    key: "_class"
    value {
      list {
        s: "loc:@global_step"
      }
    }
  }
  attr {
    key: "_output_shapes"
    value {
      list {
        shape {
        }
      }
    }
  }
  attr {
    key: "index_type"
    value {
      type: DT_INT32
    }
  }
}
node {
  name: "global_step"
  op: "VariableV2"
  attr {
    key: "_class"
    value {
      list {
        s: "loc:@global_step"
      }
    }
  }
  attr {
    key: "_output_shapes"
    value {
      list {
        shape {
        }
      }
    }
  }
  attr {
    key: "container"
    value {
      s: ""
    }
  }
  attr {
    key: "dtype"
    value {
      type: DT_INT64
    }
  }
  attr {
    key: "shape"
    value {
      shape {
      }
    }
  }
  attr {
    key: "shared_name"
    value {
      s: ""
    }
  }
}
node {
  name: "global_step/Assign"
  op: "Assign"
  input: "global_step"
  input: "global_step/Initializer/zeros"
  attr {
    key: "T"
    value {
      type: DT_INT64
    }
  }
  attr {
    key: "_class"
    value {
      list {
        s: "loc:@global_step"
      }
    }
  }
  attr {
    key: "_output_shapes"
    value {
      list {
        shape {
        }
      }
    }
  }
  attr {
    key: "use_locking"
    value {
      b: true
    }
  }
  attr {
    key: "validate_shape"
    value {
      b: true
    }
  }
}
node {
  name: "global_step/read"
  op: "Identity"
  input: "global_step"
  attr {
    key: "T"
    value {
      type: DT_INT64
    }
  }
  attr {
    key: "_class"
    value {
      list {
        s: "loc:@global_step"
      }
    }
  }
  attr {
    key: "_output_shapes"
    value {
      list {
        shape {
        }
      }
    }
  }
}
node {
  name: "global_step/IsVariableInitialized"
  op: "IsVariableInitialized"
  input: "global_step"
  attr {
    key: "_class"
    value {
      list {
        s: "loc:@global_step"
      }
    }
  }
  attr {
    key: "_output_shapes"
    value {
      list {
        shape {
        }
      }
    }
  }
  attr {
    key: "dtype"
    value {
      type: DT_INT64
    }
  }
}
node {
  name: "global_step/cond/Switch"
  op: "Switch"
  input: "global_step/IsVariableInitialized"
  input: "global_step/IsVariableInitialized"
  attr {
    key: "T"
    value {
      type: DT_BOOL
    }
  }
  attr {
    key: "_output_shapes"
    value {
      list {
        shape {
        }
        shape {
        }
      }
    }
  }
}
node {
  name: "global_step/cond/switch_t"
  op: "Identity"
  input: "global_step/cond/Switch:1"
  attr {
    key: "T"
    value {
      type: DT_BOOL
    }
  }
  attr {
    key: "_output_shapes"
    value {
      list {
        shape {
        }
      }
    }
  }
}
node {
  name: "global_step/cond/switch_f"
  op: "Identity"
  input: "global_step/cond/Switch"
  attr {
    key: "T"
    value {
      type: DT_BOOL
    }
  }
  attr {
    key: "_output_shapes"
    value {
      list {
        shape {
        }
      }
    }
  }
}
node {
  name: "global_step/cond/pred_id"
  op: "Identity"
  input: "global_step/IsVariableInitialized"
  attr {
    key: "T"
    value {
      type: DT_BOOL
    }
  }
  attr {
    key: "_output_shapes"
    value {
      list {
        shape {
        }
      }
    }
  }
}
node {
  name: "global_step/cond/read"
  op: "Identity"
  input: "global_step/cond/read/Switch:1"
  attr {
    key: "T"
    value {
      type: DT_INT64
    }
  }
  attr {
    key: "_output_shapes"
    value {
      list {
        shape {
        }
      }
    }
  }
}
node {
  name: "global_step/cond/read/Switch"
  op: "RefSwitch"
  input: "global_step"
  input: "global_step/cond/pred_id"
  attr {
    key: "T"
    value {
      type: DT_INT64
    }
  }
  attr {
    key: "_class"
    value {
      list {
        s: "loc:@global_step"
      }
    }
  }
  attr {
    key: "_output_shapes"
    value {
      list {
        shape {
        }
        shape {
        }
      }
    }
  }
}
node {
  name: "global_step/cond/Switch_1"
  op: "Switch"
  input: "global_step/Initializer/zeros"
  input: "global_step/cond/pred_id"
  attr {
    key: "T"
    value {
      type: DT_INT64
    }
  }
  attr {
    key: "_class"
    value {
      list {
        s: "loc:@global_step"
      }
    }
  }
  attr {
    key: "_output_shapes"
    value {
      list {
        shape {
        }
        shape {
        }
      }
    }
  }
}
node {
  name: "global_step/cond/Merge"
  op: "Merge"
  input: "global_step/cond/Switch_1"
  input: "global_step/cond/read"
  attr {
    key: "N"
    value {
      i: 2
    }
  }
  attr {
    key: "T"
    value {
      type: DT_INT64
    }
  }
  attr {
    key: "_output_shapes"
    value {
      list {
        shape {
        }
        shape {
        }
      }
    }
  }
}
node {
  name: "global_step/add/y"
  op: "Const"
  attr {
    key: "_output_shapes"
    value {
      list {
        shape {
        }
      }
    }
  }
  attr {
    key: "dtype"
    value {
      type: DT_INT64
    }
  }
  attr {
    key: "value"
    value {
      tensor {
        dtype: DT_INT64
        tensor_shape {
        }
        int64_val: 0
      }
    }
  }
}
node {
  name: "global_step/add"
  op: "Add"
  input: "global_step/cond/Merge"
  input: "global_step/add/y"
  attr {
    key: "T"
    value {
      type: DT_INT64
    }
  }
  attr {
    key: "_output_shapes"
    value {
      list {
        shape {
        }
      }
    }
  }
}
node {
  name: "tensors/component_0"
  op: "Const"
  device: "/device:CPU:0"
  attr {
    key: "_output_shapes"
    value {
      list {
        shape {
          dim {
            size: 26464
          }
          dim {
            size: 4
          }
        }
      }
    }
  }
  attr {
    key: "dtype"
    value {
      type: DT_INT32
    }
  }
  attr {
    key: "value"
    value {
      tensor {
        dtype: DT_INT32
        tensor_shape {
          dim {
            size: 26464
          }
          dim {
            size: 4
          }
        }
        tensor_content: "\001\000\000\000\001\000\000\000\001\000\000\000\001\000\000\000\001\000\000\000\001\000\000\000\001\000\000\000\002\000\000\000\001\000\000\000\001\000\000\000\002\000\000\000\003\000\000\000\001\000\000\000\002\000\000\000\003\000\000\000\004\000\000\000\002\000\000\000\002\000\000\000\002\000\000\000\002\000\000\000\002\000\000\000\002\000\000\000\002\000\000\000\006\000\000\000\002\000\000\000\002\000\000\000\006\000\000\000\003\000\000\000\002\000\000\000\006\000\000\000\003\000\000\000\004\000\000\000\002\000\000\000\002\000\000\000\002\000\000\000\002\000\000\000\002\000\000\000\002\000\000\000\002\000\000\000\007\000\000\000\002\000\000\000\002\000\000\000\007\000\000\000\003\000\000\000\002\000\000\000\007\000\000\000\003\000\000\000\004\000\000\000\002\000\000\000\002\000\000\000\002\000\000\000\002\000\000\000\002\000\000\000\002\000\000\000\002\000\000\000\010\000\000\000\002\000\000\000\002\000\000\000\010\000\000\000\t\000\000\000\002\000\000\000\010\000\000\000\t\000\000\000\004\000\000\000\002\000\000\000\002\000\000\000\002\000\000\000\002\000\000\000\002\000\000\000\002\000\000\000\002\000\000\000\003\000\000\000\002\000\000\000\002\000\000\000\003\000\000\000\004\000\000\000\n\000\000\000\n\000\000\000\n\000\000\000\n\000\000\000\n\000\000\000\n\000\000\000\n\000\000\000\013\000\000\000\n\000\000\000\n\000\000\000\013\000\000\000\014\000\000\000\n\000\000\000\013\000\000\000\014\000\000\000\t\000\000\000\r\000\000\000\r\000\000\000\r\000\000\000\r\000\000\000\r\000\000\000\r\000\000\000\r\000\000\000\016\000\000\000\r\000\000\000\r\000\000\000\016\000\000\000\017\000\000\000\r\000\000\000\016\000\000\000\017\000\000\000\020\000\000\000\t\000\000\000\t\000\000\000\t\000\000\000\t\000\000\000\t\000\000\000\t\000\000\000\t\000\000\000\004\000\000\000\t\000\000\000\t\000\000\000\004\000\000\000\022\000\000\000\t\000\000\000\004\000\000\000\022\000\000\000\004\000\000\000\t\000\000\000\t\000\000\000\t\000\000\000\t\000\000\000\t\000\000\000\t\000\000\000\t\000\000\000\004\000\000\000\t\000\000\000\t\000\000\000\004\000\000\000\005\000\000\000\t\000\000\000\004\000\000\000\005\000\000\000\023\000\000\000\024\000\000\000\024\000\000\000\024\000\000\000\024\000\000\000\024\000\000\000\024\000\000\000\024\000\000\000\006\000\000\000\024\000\000\000\024\000\000\000\006\000\000\000\003\000\000\000\024\000\000\000\006\000\000\000\003\000\000\000\004\000\000\000\t\000\000\000\t\000\000\000\t\000\000\000\t\000\000\000\t\000\000\000\t\000\000\000\t\000\000\000\025\000\000\000\t\000\000\000\t\000\000\000\025\000\000\000\003\000\000\000\t\000\000\000\025\000\000\000\003\000\000\000\004\000\000\000\t\000\000\000\t\000\000\000\t\000\000\000\t\000\000\000\t\000\000\000\t\000\000\000\t\000\000\000\026\000\000\000\t\000\000\000\t\000\000\000\026\000\000\000\027\000\000\000\t\000\000\000\026\000\000\000\027\000\000\000\004\000\000\000\t\000\000\000\t\000\000\000\t\000\000\000\t\000\000\000\t\000\000\000\t\000\000\000\t\000\000\000\r\000\000\000\t\000\000\000\t\000\000\000\r\000\000\000\t\000\000\000\t\000\000\000\r\000\000\000\t\000\000\000\004\000\000\000\t\000\000\000\t\000\000\000\t\000\000\000\t\000\000\000\t\000\000\000\t\000\000\000\t\000\000\000\004\000\000\000\t\000\000\000\t\000\000\000\004\000\000\000\030\000\000\000\t\000\000\000\004\000\000\000\030\000\000\000\031\000\000\000\024\000\000\000\024\000\000\000\024\000\000\000\024\000\000\000\024\000\000\000\024\000\000\000\024\000\000\000\007\000\000\000\024\000\000\000\024\000\000\000\007\000\000\000\003\000\000\000\024\000\000\000\007\000\000\000\003\000\000\000\004\000\000\000\t\000\000\000\t\000\000\000\t\000\000\000\t\000\000\000\t\000\000\000\t\000\000\000\t\000\000\000\004\000\000\000\t\000\000\000\t\000\000\000\004\000\000\000\032\000\000\000\t\000\000\000\004\000\000\000\032\000\000\000\031\000\000\000\033\000\000\000\033\000\000\000\033\000\000\000\033\000\000\000\033\000\000\000\033\000\000\000\033\000\000\000\034\000\000\000\033\000\000\000\033\000\000\000\034\000\000\000\027\000\000\000\033\000\000\000\034\000\000\000\027\000\000\000\004\000\000\000\016\000\000\000\016\000\000\000\016\000\000\000\016\000\000\000\016\000\000\000\016\000\000\000\016\000\000\000\014\000\000\000\016\000\000\000\016\000\000\000\014\000\000\000\t\000\000\000\016\000\000\000\014\000\000\000\t\000\000\000\004\000\000\000\033\000\000\000\033\000\000\000\033\000\000\000\033\000\000\000\033\000\000\000\033\000\000\000\033\000\000\000\035\000\000\000\033\000\000\000\033\000\000\000\035\000\000\000\t\000\000\000\033\000\000\000\035\000\000\000\t\000\000\000\004\000\000\000\024\000\000\000\024\000\000\000\024\000\000\000\024\000\000\000\024\000\000\000\024\000\000\000\024\000\000\000\010\000\000\000\024\000\000\000\024\000\000\000\010\000\000\000\t\000\000\000\024\000\000\000\010\000\000\000\t\000\000\000\004\000\000\000\t\000\000\000\t\000\000\000\t\000\000\000\t\000\000\000\t\000\000\000\t\000\000\000\t\000\000\000\004\000\000\000\t\000\000\000\t\000\000\000\004\000\000\000\032\000\000\000\t\000\000\000\004\000\000\000\032\000\000\000\036\000\000\000\t\000\000\000\t\000\000\000\t\000\000\000\t\000\000\000\t\000\000\000\t\000\000\000\t\000\000\000\004\000\000\000\t\000\000\000\t\000\000\000\004\000\000\000\030\000\000\000\t\000\000\000\004\000\000\000\030\000\000\000\036\000\000\000\033\000\000\000\033\000\000\000\033\000\000\000\033\000\000\000\033\000\000\000\033\000\000\000\033\000\000\000\027\000\000\000\033\000\000\000\033\000\000\000\027\000\000\000\004\000\000\000\024\000\000\000\024\000\000\000\024\000\000\000\024\000\000\000\024\000\000\000\024\000\000\000\024\000\000\000\003\000\000\000\024\000\000\000\024\000\000\000\003\000\000\000\004\000\000\000\t\000\000\000\t\000\000\000\t\000\000\000\t\000\000\000\t\000\000\000\t\000\000\000\t\000\000\000\004\000\000\000\001\000\000\000\001\000\000\000\001\000\000\000\001\000\000\000\001\000\000\000\001\000\000\000\001\000\000\000\002\000\000\000\001\000\000\000\001\000\000\000\002\000\000\000\003\000\000\000\001\000\000\000\002\000\000\000\003\000\000\000\026\000\000\000\002\000\000\000\002\000\000\000\002\000\000\000\002\000\000\000\002\000\000\000\002\000\000\000\002\000\000\000\006\000\000\000\002\000\000\000\002\000\000\000\006\000\000\000\010\000\000\000\002\000\000\000\006\000\000\000\010\000\000\000\033\000\000\000\001\000\000\000\001\000\000\000\001\000\000\000\001\000\000\000\001\000\000\000\001\000\000\000\001\000\000\000\002\000\000\000\001\000\000\000\001\000\000\000\002\000\000\000\010\000\000\000\001\000\000\000\002\000\000\000\010\000\000\000\033\000\000\000\002\000\000\000\002\000\000\000\002\000\000\000\002\000\000\000\002\000\000\000\002\000\000\000\002\000\000\000\006\000\000\000\002\000\000\000\002\000\000\000\006\000\000\000\003\000\000\000\002\000\000\000\006\000\000\000\003\000\000\000\026\000\000\000\002\000\000\000\002\000\000\000\002\000\000\000\002\000\000\000\002\000\000\000\002\000\000\000\002\000\000\000\003\000\000\000\002\000\000\000\002\000\000\000\003\000\000\000\r\000\000\000\002\000\000\000\003\000\000\000\r\000\000\000\033\000\000\000\002\000\000\000\002\000\000\000\002\000\000\000\002\000\000\000\002\000\000\000\002\000\000\000\002\000\000\000\007\000\000\000\002\000\000\000\002\000\000\000\007\000\000\000\010\000\000\000\002\000\000\000\007\000\000\000\010\000\000\000\033\000\000\000\002\000\000\000\002\000\000\000\002\000\000\000\002\000\000\000\002\000\000\000\002\000\000\000\002\000\000\000\010\000\000\000\002\000\000\000\002\000\000\000\010\000\000\000\t\000\000\000\002\000\000\000\010\000\000\000\t\000\000\000\026\000\000\000\002\000\000\000\002\000\000\000\002\000\000\000\002\000\000\000\002\000\000\000\002\000\000\000\002\000\000\000\003\000\000\000\002\000\000\000\002\000\000\000\003\000\000\000\026\000\000\000\002\000\000\000\003\000\000\000\026\000\000\000\034\000\000\000\002\000\000\000\002\000\000\000\002\000\000\000\002\000\000\000\002\000\000\000\002\000\000\000\002\000\000\000\010\000\000\000\002\000\000\000\002\000\000\000\010\000\000\000\033\000\000\000\002\000\000\000\010\000\000\000\033\000\000\000\034\000\000\000\002\000\000\000\002\000\000\000\002\000\000\000\002\000\000\000\002\000\000\000\002\000\000\000\002\000\000\000\007\000\000\000\002\000\000\000\002\000\000\000\007\000\000\000\003\000\000\000\002\000\000\000\007\000\000\000\003\000\000\000\026\000\000\000\002\000\000\000\002\000\000\000\002\000\000\000\002\000\000\000\002\000\000\000\002\000\000\000\002\000\000\000\010\000\000\000\002\000\000\000\002\000\000\000\010\000\000\000\033\000\000\000\002\000\000\000\002\000\000\000\002\000\000\000\002\000\000\000\002\000\000\000\002\000\000\000\002\000\000\000\003\000\000\000\002\000\000\000\002\000\000\000\003\000\000\000\026\000\000\000\006\000\000\000\006\000\000\000\006\000\000\000\006\000\000\000\006\000\000\000\006\000\000\000\006\000\000\000\010\000\000\000\006\000\000\000\006\000\000\000\010\000\000\000\033\000\000\000\006\000\000\000\010\000\000\000\033\000\000\000\037\000\000\000\006\000\000\000\006\000\000\000\006\000\000\000\006\000\000\000\006\000\000\000\006\000\000\000\006\000\000\000\006\000\000\000\006\000\000\000\006\000\000\000\006\000\000\000\006\000\000\000\006\000\000\000\006\000\000\000\006\000\000\000\003\000\000\000!\000\000\000!\000\000\000!\000\000\000!\000\000\000!\000\000\000!\000\000\000!\000\000\000\001\000\000\000!\000\000\000!\000\000\000\001\000\000\000\002\000\000\000!\000\000\000\001\000\000\000\002\000\000\000\003\000\000\000!\000\000\000!\000\000\000!\000\000\000!\000\000\000!\000\000\000!\000\000\000!\000\000\000\002\000\000\000!\000\000\000!\000\000\000\002\000\000\000\006\000\000\000!\000\000\000\002\000\000\000\006\000\000\000\010\000\000\000\006\000\000\000\006\000\000\000\006\000\000\000\006\000\000\000\006\000\000\000\006\000\000\000\006\000\000\000!\000\000\000\006\000\000\000\006\000\000\000!\000\000\000\002\000\000\000\006\000\000\000!\000\000\000\002\000\000\000\010\000\000\000!\000\000\000!\000\000\000!\000\000\000!\000\000\000!\000\000\000!\000\000\000!\000\000\000\002\000\000\000!\000\000\000!\000\000\000\002\000\000\000\006\000\000\000!\000\000\000\002\000\000\000\006\000\000\000\003\000\000\000\006\000\000\000\006\000\000\000\006\000\000\000\006\000\000\000\006\000\000\000\006\000\000\000\006\000\000\000\003\000\000\000\006\000\000\000\006\000\000\000\003\000\000\000\026\000\000\000\006\000\000\000\003\000\000\000\026\000\000\000\037\000\000\000\006\000\000\000\006\000\000\000\006\000\000\000\006\000\000\000\006\000\000\000\006\000\000\000\006\000\000\000!\000\000\000\006\000\000\000\006\000\000\000!\000\000\000\002\000\000\000\006\000\000\000!\000\000\000\002\000\000\000\003\000\000\000\006\000\000\000\006\000\000\000\006\000\000\000\006\000\000\000\006\000\000\000\006\000\000\000\006\000\000\000\006\000\000\000\006\000\000\000\006\000\000\000\006\000\000\000\006\000\000\000\006\000\000\000\006\000\000\000\006\000\000\000\010\000\000\000\006\000\000\000\006\000\000\000\006\000\000\000\006\000\000\000\006\000\000\000\006\000\000\000\006\000\000\000\003\000\000\000\006\000\000\000\006\000\000\000\003\000\000\000\004\000\000\000\006\000\000\000\003\000\000\000\004\000\000\000\022\000\000\000!\000\000\000!\000\000\000!\000\000\000!\000\000\000!\000\000\000!\000\000\000!\000\000\000\001\000\000\000!\000\000\000!\000\000\000\001\000\000\000\002\000\000\000!\000\000\000\001\000\000\000\002\000\000\000\010\000\000\000\007\000\000\000\007\000\000\000\007\000\000\000\007\000\000\000\007\000\000\000\007\000\000\000\007\000\000\000\010\000\000\000\007\000\000\000\007\000\000\000\010\000\000\000\033\000\000\000\007\000\000\000\010\000\000\000\033\000\000\000\037\000\000\000\010\000\000\000\010\000\000\000\010\000\000\000\010\000\000\000\010\000\000\000\010\000\000\000\010\000\000\000\033\000\000\000\010\000\000\000\010\000\000\000\033\000\000\000\037\000\000\000\010\000\000\000\033\000\000\000\037\000\000\000 \000\000\000\003\000\000\000\003\000\000\000\003\000\000\000\003\000\000\000\003\000\000\000\003\000\000\000\003\000\000\000\004\000\000\000\003\000\000\000\003\000\000\000\004\000\000\000\022\000\000\000\003\000\000\000\004\000\000\000\022\000\000\000\r\000\000\000\007\000\000\000\007\000\000\000\007\000\000\000\007\000\000\000\007\000\000\000\007\000\000\000\007\000\000\000\006\000\000\000\007\000\000\000\007\000\000\000\006\000\000\000\006\000\000\000\007\000\000\000\006\000\000\000\006\000\000\000\003\000\000\000\007\000\000\000\007\000\000\000\007\000\000\000\007\000\000\000\007\000\000\000\007\000\000\000\007\000\000\000\006\000\000\000\007\000\000\000\007\000\000\000\006\000\000\000\006\000\000\000\007\000\000\000\006\000\000\000\006\000\000\000\010\000\000\000!\000\000\000!\000\000\000!\000\000\000!\000\000\000!\000\000\000!\000\000\000!\000\000\000\002\000\000\000!\000\000\000!\000\000\000\002\000\000\000\010\000\000\000!\000\000\000\002\000\000\000\010\000\000\000\t\000\000\000\007\000\000\000\007\000\000\000\007\000\000\000\007\000\000\000\007\000\000\000\007\000\000\000\007\000\000\000\003\000\000\000\007\000\000\000\007\000\000\000\003\000\000\000\004\000\000\000\007\000\000\000\003\000\000\000\004\000\000\000\022\000\000\000!\000\000\000!\000\000\000!\000\000\000!\000\000\000!\000\000\000!\000\000\000!\000\000\000\002\000\000\000!\000\000\000!\000\000\000\002\000\000\000\010\000\000\000!\000\000\000\002\000\000\000\010\000\000\000\033\000\000\000\003\000\000\000\003\000\000\000\003\000\000\000\003\000\000\000\003\000\000\000\003\000\000\000\003\000\000\000\026\000\000\000\003\000\000\000\003\000\000\000\026\000\000\000\037\000\000\000\003\000\000\000\026\000\000\000\037\000\000\000 \000\000\000\006\000\000\000\006\000\000\000\006\000\000\000\006\000\000\000\006\000\000\000\006\000\000\000\006\000\000\000\006\000\000\000\006\000\000\000\006\000\000\000\006\000\000\000\003\000\000\000\006\000\000\000\006\000\000\000\003\000\000\000\r\000\000\000\006\000\000\000\006\000\000\000\006\000\000\000\006\000\000\000\006\000\000\000\006\000\000\000\006\000\000\000\006\000\000\000\006\000\000\000\006\000\000\000\006\000\000\000\010\000\000\000\006\000\000\000\006\000\000\000\010\000\000\000\033\000\000\000\003\000\000\000\003\000\000\000\003\000\000\000\003\000\000\000\003\000\000\000\003\000\000\000\003\000\000\000\026\000\000\000\003\000\000\000\003\000\000\000\026\000\000\000\034\000\000\000\003\000\000\000\026\000\000\000\034\000\000\000\037\000\000\000!\000\000\000!\000\000\000!\000\000\000!\000\000\000!\000\000\000!\000\000\000!\000\000\000\002\000\000\000!\000\000\000!\000\000\000\002\000\000\000\003\000\000\000!\000\000\000\002\000\000\000\003\000\000\000\026\000\000\000\010\000\000\000\010\000\000\000\010\000\000\000\010\000\000\000\010\000\000\000\010\000\000\000\010\000\000\000\t\000\000\000\010\000\000\000\010\000\000\000\t\000\000\000\004\000\000\000\010\000\000\000\t\000\000\000\004\000\000\000\022\000\000\000\006\000\000\000\006\000\000\000\006\000\000\000\006\000\000\000\006\000\000\000\006\000\000\000\006\000\000\000\007\000\000\000\006\000\000\000\006\000\000\000\007\000\000\000\006\000\000\000\006\000\000\000\007\000\000\000\006\000\000\000\003\000\000\000!\000\000\000!\000\000\000!\000\000\000!\000\000\000!\000\000\000!\000\000\000!\000\000\000\002\000\000\000!\000\000\000!\000\000\000\002\000\000\000\007\000\000\000!\000\000\000\002\000\000\000\007\000\000\000\003\000\000\000\003\000\000\000\003\000\000\000\003\000\000\000\003\000\000\000\003\000\000\000\003\000\000\000\003\000\000\000\004\000\000\000\003\000\000\000\003\000\000\000\004\000\000\000\022\000\000\000\003\000\000\000\004\000\000\000\022\000\000\000\026\000\000\000\007\000\000\000\007\000\000\000\007\000\000\000\007\000\000\000\007\000\000\000\007\000\000\000\007\000\000\000!\000\000\000\007\000\000\000\007\000\000\000!\000\000\000\002\000\000\000\007\000\000\000!\000\000\000\002\000\000\000\010\000\000\000!\000\000\000!\000\000\000!\000\000\000!\000\000\000!\000\000\000!\000\000\000!\000\000\000\002\000\000\000!\000\000\000!\000\000\000\002\000\000\000\003\000\000\000!\000\000\000\002\000\000\000\003\000\000\000\r\000\000\000\003\000\000\000\003\000\000\000\003\000\000\000\003\000\000\000\003\000\000\000\003\000\000\000\003\000\000\000\r\000\000\000\003\000\000\000\003\000\000\000\r\000\000\000\033\000\000\000\003\000\000\000\r\000\000\000\033\000\000\000\037\000\000\000\007\000\000\000\007\000\000\000\007\000\000\000\007\000\000\000\007\000\000\000\007\000\000\000\007\000\000\000!\000\000\000\007\000\000\000\007\000\000\000!\000\000\000\002\000\000\000\007\000\000\000!\000\000\000\002\000\000\000\003\000\000\000\007\000\000\000\007\000\000\000\007\000\000\000\007\000\000\000\007\000\000\000\007\000\000\000\007\000\000\000\003\000\000\000\007\000\000\000\007\000\000\000\003\000\000\000\026\000\000\000\007\000\000\000\003\000\000\000\026\000\000\000\037\000\000\000\006\000\000\000\006\000\000\000\006\000\000\000\006\000\000\000\006\000\000\000\006\000\000\000\006\000\000\000\006\000\000\000\006\000\000\000\006\000\000\000\006\000\000\000\007\000\000\000\006\000\000\000\006\000\000\000\007\000\000\000\003\000\000\000\006\000\000\000\006\000\000\000\006\000\000\000\006\000\000\000\006\000\000\000\006\000\000\000\006\000\000\000\007\000\000\000\006\000\000\000\006\000\000\000\007\000\000\000\006\000\000\000\006\000\000\000\007\000\000\000\006\000\000\000\010\000\000\000\010\000\000\000\010\000\000\000\010\000\000\000\010\000\000\000\010\000\000\000\010\000\000\000\010\000\000\000\t\000\000\000\010\000\000\000\010\000\000\000\t\000\000\000\026\000\000\000\010\000\000\000\t\000\000\000\026\000\000\000\037\000\000\000\010\000\000\000\010\000\000\000\010\000\000\000\010\000\000\000\010\000\000\000\010\000\000\000\010\000\000\000\033\000\000\000\010\000\000\000\010\000\000\000\033\000\000\000\034\000\000\000\010\000\000\000\033\000\000\000\034\000\000\000\037\000\000\000\006\000\000\000\006\000\000\000\006\000\000\000\006\000\000\000\006\000\000\000\006\000\000\000\006\000\000\000\006\000\000\000\006\000\000\000\006\000\000\000\006\000\000\000\007\000\000\000\006\000\000\000\006\000\000\000\007\000\000\000\010\000\000\000\006\000\000\000\006\000\000\000\006\000\000\000\006\000\000\000\006\000\000\000\006\000\000\000\006\000\000\000\006\000\000\000\006\000\000\000\006\000\000\000\006\000\000\000\010\000\000\000\006\000\000\000\006\000\000\000\010\000\000\000\t\000\000\000\006\000\000\000\006\000\000\000\006\000\000\000\006\000\000\000\006\000\000\000\006\000\000\000\006\000\000\000\006\000\000\000\006\000\000\000\006\000\000\000\006\000\000\000\003\000\000\000\006\000\000\000\006\000\000\000\003\000\000\000\026\000\000\000!\000\000\000!\000\000\000!\000\000\000!\000\000\000!\000\000\000!\000\000\000!\000\000\000\002\000\000\000!\000\000\000!\000\000\000\002\000\000\000\007\000\000\000!\000\000\000\002\000\000\000\007\000\000\000\010\000\000\000\006\000\000\000\006\000\000\000\006\000\000\000\006\000\000\000\006\000\000\000\006\000\000\000\006\000\000\000\007\000\000\000\006\000\000\000\006\000\000\000\007\000\000\000\003\000\000\000\006\000\000\000\007\000\000\000\003\000\000\000\r\000\000\000\006\000\000\000\006\000\000\000\006\000\000\000\006\000\000\000\006\000\000\000\006\000\000\000\006\000\000\000\010\000\000\000\006\000\000\000\006\000\000\000\010\000\000\000\024\000\000\000\006\000\000\000\010\000\000\000\024\000\000\000\003\000\000\000\003\000\000\000\003\000\000\000\003\000\000\000\003\000\000\000\003\000\000\000\003\000\000\000\003\000\000\000\025\000\000\000\003\000\000\000\003\000\000\000\025\000\000\000\006\000\000\000\003\000\000\000\025\000\000\000\006\000\000\000\010\000\000\000\010\000\000\000\010\000\000\000\010\000\000\000\010\000\000\000\010\000\000\000\010\000\000\000\010\000\000\000\024\000\000\000\010\000\000\000\010\000\000\000\024\000\000\000\006\000\000\000\010\000\000\000\024\000\000\000\006\000\000\000\003\000\000\000\006\000\000\000\006\000\000\000\006\000\000\000\006\000\000\000\006\000\000\000\006\000\000\000\006\000\000\000\010\000\000\000\006\000\000\000\006\000\000\000\010\000\000\000\t\000\000\000\006\000\000\000\010\000\000\000\t\000\000\000\026\000\000\000\006\000\000\000\006\000\000\000\006\000\000\000\006\000\000\000\006\000\000\000\006\000\000\000\006\000\000\000\010\000\000\000\006\000\000\000\006\000\000\000\010\000\000\000\016\000\000\000\006\000\000\000\010\000\000\000\016\000\000\000\014\000\000\000\006\000\000\000\006\000\000\000\006\000\000\000\006\000\000\000\006\000\000\000\006\000\000\000\006\000\000\000\003\000\000\000\006\000\000\000\006\000\000\000\003\000\000\000\r\000\000\000\006\000\000\000\003\000\000\000\r\000\000\000\t\000\000\000\006\000\000\000\006\000\000\000\006\000\000\000\006\000\000\000\006\000\000\000\006\000\000\000\006\000\000\000\010\000\000\000\006\000\000\000\006\000\000\000\010\000\000\000\033\000\000\000\006\000\000\000\010\000\000\000\033\000\000\000\034\000\000\000\007\000\000\000\007\000\000\000\007\000\000\000\007\000\000\000\007\000\000\000\007\000\000\000\007\000\000\000\006\000\000\000\007\000\000\000\007\000\000\000\006\000\000\000\010\000\000\000\007\000\000\000\006\000\000\000\010\000\000\000\t\000\000\000\010\000\000\000\010\000\000\000\010\000\000\000\010\000\000\000\010\000\000\000\010\000\000\000\010\000\000\000\024\000\000\000\010\000\000\000\010\000\000\000\024\000\000\000\006\000\000\000\010\000\000\000\024\000\000\000\006\000\000\000\010\000\000\000\006\000\000\000\006\000\000\000\006\000\000\000\006\000\000\000\006\000\000\000\006\000\000\000\006\000\000\000\007\000\000\000\006\000\000\000\006\000\000\000\007\000\000\000\003\000\000\000\006\000\000\000\007\000\000\000\003\000\000\000\026\000\000\000\007\000\000\000\007\000\000\000\007\000\000\000\007\000\000\000\007\000\000\000\007\000\000\000\007\000\000\000\006\000\000\000\007\000\000\000\007\000\000\000\006\000\000\000\007\000\000\000\007\000\000\000\006\000\000\000\007\000\000\000\003\000\000\000\006\000\000\000\006\000\000\000\006\000\000\000\006\000\000\000\006\000\000\000\006\000\000\000\006\000\000\000\010\000\000\000\006\000\000\000\006\000\000\000\010\000\000\000\033\000\000\000\006\000\000\000\010\000\000\000\033\000\000\000\035\000\000\000\007\000\000\000\007\000\000\000\007\000\000\000\007\000\000\000\007\000\000\000\007\000\000\000\007\000\000\000\007\000\000\000\007\000\000\000\007\000\000\000\007\000\000\000\006\000\000\000\007\000\000\000\007\000\000\000\006\000\000\000\003\000\000\000\006\000\000\000\006\000\000\000\006\000\000\000\006\000\000\000\006\000\000\000\006\000\000\000\006\000\000\000\007\000\000\000\006\000\000\000\006\000\000\000\007\000\000\000\010\000\000\000\006\000\000\000\007\000\000\000\010\000\000\000\033\000\000\000\006\000\000\000\006\000\000\000\006\000\000\000\006\000\000\000\006\000\000\000\006\000\000\000\006\000\000\000\003\000\000\000\006\000\000\000\006\000\000\000\003\000\000\000\025\000\000\000\006\000\000\000\003\000\000\000\025\000\000\000\010\000\000\000\006\000\000\000\006\000\000\000\006\000\000\000\006\000\000\000\006\000\000\000\006\000\000\000\006\000\000\000\003\000\000\000\006\000\000\000\006\000\000\000\003\000\000\000\026\000\000\000\006\000\000\000\003\000\000\000\026\000\000\000\035\000\000\000\006\000\000\000\006\000\000\000\006\000\000\000\006\000\000\000\006\000\000\000\006\000\000\000\006\000\000\000\003\000\000\000\006\000\000\000\006\000\000\000\003\000\000\000\r\000\000\000\006\000\000\000\003\000\000\000\r\000\000\000\033\000\000\000\007\000\000\000\007\000\000\000\007\000\000\000\007\000\000\000\007\000\000\000\007\000\000\000\007\000\000\000\006\000\000\000\007\000\000\000\007\000\000\000\006\000\000\000\010\000\000\000\007\000\000\000\006\000\000\000\010\000\000\000\033\000\000\000\006\000\000\000\006\000\000\000\006\000\000\000\006\000\000\000\006\000\000\000\006\000\000\000\006\000\000\000\007\000\000\000\006\000\000\000\006\000\000\000\007\000\000\000\007\000\000\000\006\000\000\000\007\000\000\000\007\000\000\000\003\000\000\000\007\000\000\000\007\000\000\000\007\000\000\000\007\000\000\000\007\000\000\000\007\000\000\000\007\000\000\000\006\000\000\000\007\000\000\000\007\000\000\000\006\000\000\000\007\000\000\000\007\000\000\000\006\000\000\000\007\000\000\000\010\000\000\000\007\000\000\000\007\000\000\000\007\000\000\000\007\000\000\000\007\000\000\000\007\000\000\000\007\000\000\000\007\000\000\000\007\000\000\000\007\000\000\000\007\000\000\000\006\000\000\000\007\000\000\000\007\000\000\000\006\000\000\000\010\000\000\000\007\000\000\000\007\000\000\000\007\000\000\000\007\000\000\000\007\000\000\000\007\000\000\000\007\000\000\000\006\000\000\000\007\000\000\000\007\000\000\000\006\000\000\000\003\000\000\000\007\000\000\000\006\000\000\000\003\000\000\000\r\000\000\000\007\000\000\000\007\000\000\000\007\000\000\000\007\000\000\000\007\000\000\000\007\000\000\000\007\000\000\000\006\000\000\000\007\000\000\000\007\000\000\000\006\000\000\000\003\000\000\000\007\000\000\000\006\000\000\000\003\000\000\000\026\000\000\000\003\000\000\000\003\000\000\000\003\000\000\000\003\000\000\000\003\000\000\000\003\000\000\000\003\000\000\000\025\000\000\000\003\000\000\000\003\000\000\000\025\000\000\000\006\000\000\000\003\000\000\000\025\000\000\000\006\000\000\000\003\000\000\000\006\000\000\000\006\000\000\000\006\000\000\000\006\000\000\000\006\000\000\000\006\000\000\000\006\000\000\000\003\000\000\000\006\000\000\000\006\000\000\000\003\000\000\000\025\000\000\000\006\000\000\000\003\000\000\000\025\000\000\000\003\000\000\000\006\000\000\000\006\000\000\000\006\000\000\000\006\000\000\000\006\000\000\000\006\000\000\000\006\000\000\000\010\000\000\000\006\000\000\000\006\000\000\000\010\000\000\000\024\000\000\000\006\000\000\000\010\000\000\000\024\000\000\000\010\000\000\000\006\000\000\000\006\000\000\000\006\000\000\000\006\000\000\000\006\000\000\000\006\000\000\000\006\000\000\000\003\000\000\000\006\000\000\000\006\000\000\000\003\000\000\000\026\000\000\000\006\000\000\000\003\000\000\000\026\000\000\000\027\000\000\000\006\000\000\000\006\000\000\000\006\000\000\000\006\000\000\000\006\000\000\000\006\000\000\000\006\000\000\000\003\000\000\000\006\000\000\000\006\000\000\000\003\000\000\000\026\000\000\000\006\000\000\000\003\000\000\000\026\000\000\000\034\000\000\000\006\000\000\000\006\000\000\000\006\000\000\000\006\000\000\000\006\000\000\000\006\000\000\000\006\000\000\000\007\000\000\000\006\000\000\000\006\000\000\000\007\000\000\000\007\000\000\000\006\000\000\000\007\000\000\000\007\000\000\000\010\000\000\000\006\000\000\000\006\000\000\000\006\000\000\000\006\000\000\000\006\000\000\000\006\000\000\000\006\000\000\000\010\000\000\000\006\000\000\000\006\000\000\000\010\000\000\000\t\000\000\000\006\000\000\000\010\000\000\000\t\000\000\000\r\000\000\000\006\000\000\000\006\000\000\000\006\000\000\000\006\000\000\000\006\000\000\000\006\000\000\000\006\000\000\000\007\000\000\000\006\000\000\000\006\000\000\000\007\000\000\000\010\000\000\000\006\000\000\000\007\000\000\000\010\000\000\000\t\000\000\000\006\000\000\000\006\000\000\000\006\000\000\000\006\000\000\000\006\000\000\000\006\000\000\000\006\000\000\000\010\000\000\000\006\000\000\000\006\000\000\000\010\000\000\000\033\000\000\000\006\000\000\000\010\000\000\000\033\000\000\000\027\000\000\000\010\000\000\000\010\000\000\000\010\000\000\000\010\000\000\000\010\000\000\000\010\000\000\000\010\000\000\000\016\000\000\000\010\000\000\000\010\000\000\000\016\000\000\000\"\000\000\000\010\000\000\000\016\000\000\000\"\000\000\000\014\000\000\000\003\000\000\000\003\000\000\000\003\000\000\000\003\000\000\000\003\000\000\000\003\000\000\000\003\000\000\000\025\000\000\000\003\000\000\000\003\000\000\000\025\000\000\000\007\000\000\000\003\000\000\000\025\000\000\000\007\000\000\000\010\000\000\000\003\000\000\000\003\000\000\000\003\000\000\000\003\000\000\000\003\000\000\000\003\000\000\000\003\000\000\000\r\000\000\000\003\000\000\000\003\000\000\000\r\000\000\000\t\000\000\000\003\000\000\000\r\000\000\000\t\000\000\000\r\000\000\000\010\000\000\000\010\000\000\000\010\000\000\000\010\000\000\000\010\000\000\000\010\000\000\000\010\000\000\000\t\000\000\000\010\000\000\000\010\000\000\000\t\000\000\000\026\000\000\000\010\000\000\000\t\000\000\000\026\000\000\000\027\000\000\000\010\000\000\000\010\000\000\000\010\000\000\000\010\000\000\000\010\000\000\000\010\000\000\000\010\000\000\000\t\000\000\000\010\000\000\000\010\000\000\000\t\000\000\000\r\000\000\000\010\000\000\000\t\000\000\000\r\000\000\000\t\000\000\000\010\000\000\000\010\000\000\000\010\000\000\000\010\000\000\000\010\000\000\000\010\000\000\000\010\000\000\000\033\000\000\000\010\000\000\000\010\000\000\000\033\000\000\000\035\000\000\000\010\000\000\000\033\000\000\000\035\000\000\000\033\000\000\000\007\000\000\000\007\000\000\000\007\000\000\000\007\000\000\000\007\000\000\000\007\000\000\000\007\000\000\000\007\000\000\000\007\000\000\000\007\000\000\000\007\000\000\000\003\000\000\000\007\000\000\000\007\000\000\000\003\000\000\000\r\000\000\000\003\000\000\000\003\000\000\000\003\000\000\000\003\000\000\000\003\000\000\000\003\000\000\000\003\000\000\000\026\000\000\000\003\000\000\000\003\000\000\000\026\000\000\000\035\000\000\000\003\000\000\000\026\000\000\000\035\000\000\000\t\000\000\000\010\000\000\000\010\000\000\000\010\000\000\000\010\000\000\000\010\000\000\000\010\000\000\000\010\000\000\000\024\000\000\000\010\000\000\000\010\000\000\000\024\000\000\000\003\000\000\000\010\000\000\000\024\000\000\000\003\000\000\000\r\000\000\000\010\000\000\000\010\000\000\000\010\000\000\000\010\000\000\000\010\000\000\000\010\000\000\000\010\000\000\000\024\000\000\000\010\000\000\000\010\000\000\000\024\000\000\000\010\000\000\000\010\000\000\000\024\000\000\000\010\000\000\000\033\000\000\000\007\000\000\000\007\000\000\000\007\000\000\000\007\000\000\000\007\000\000\000\007\000\000\000\007\000\000\000\010\000\000\000\007\000\000\000\007\000\000\000\010\000\000\000\016\000\000\000\007\000\000\000\010\000\000\000\016\000\000\000\014\000\000\000\010\000\000\000\010\000\000\000\010\000\000\000\010\000\000\000\010\000\000\000\010\000\000\000\010\000\000\000\033\000\000\000\010\000\000\000\010\000\000\000\033\000\000\000\034\000\000\000\010\000\000\000\033\000\000\000\034\000\000\000\035\000\000\000\003\000\000\000\003\000\000\000\003\000\000\000\003\000\000\000\003\000\000\000\003\000\000\000\003\000\000\000\025\000\000\000\003\000\000\000\003\000\000\000\025\000\000\000\010\000\000\000\003\000\000\000\025\000\000\000\010\000\000\000\t\000\000\000\007\000\000\000\007\000\000\000\007\000\000\000\007\000\000\000\007\000\000\000\007\000\000\000\007\000\000\000\003\000\000\000\007\000\000\000\007\000\000\000\003\000\000\000\025\000\000\000\007\000\000\000\003\000\000\000\025\000\000\000\010\000\000\000\007\000\000\000\007\000\000\000\007\000\000\000\007\000\000\000\007\000\000\000\007\000\000\000\007\000\000\000\003\000\000\000\007\000\000\000\007\000\000\000\003\000\000\000\r\000\000\000\007\000\000\000\003\000\000\000\r\000\000\000\033\000\000\000\003\000\000\000\003\000\000\000\003\000\000\000\003\000\000\000\003\000\000\000\003\000\000\000\003\000\000\000\r\000\000\000\003\000\000\000\003\000\000\000\r\000\000\000\033\000\000\000\003\000\000\000\r\000\000\000\033\000\000\000\035\000\000\000\003\000\000\000\003\000\000\000\003\000\000\000\003\000\000\000\003\000\000\000\003\000\000\000\003\000\000\000\026\000\000\000\003\000\000\000\003\000\000\000\026\000\000\000\027\000\000\000\003\000\000\000\026\000\000\000\027\000\000\000\r\000\000\000\010\000\000\000\010\000\000\000\010\000\000\000\010\000\000\000\010\000\000\000\010\000\000\000\010\000\000\000\t\000\000\000\010\000\000\000\010\000\000\000\t\000\000\000\025\000\000\000\010\000\000\000\t\000\000\000\025\000\000\000\003\000\000\000\007\000\000\000\007\000\000\000\007\000\000\000\007\000\000\000\007\000\000\000\007\000\000\000\007\000\000\000\010\000\000\000\007\000\000\000\007\000\000\000\010\000\000\000\033\000\000\000\007\000\000\000\010\000\000\000\033\000\000\000\034\000\000\000\007\000\000\000\007\000\000\000\007\000\000\000\007\000\000\000\007\000\000\000\007\000\000\000\007\000\000\000\003\000\000\000\007\000\000\000\007\000\000\000\003\000\000\000\026\000\000\000\007\000\000\000\003\000\000\000\026\000\000\000\027\000\000\000\003\000\000\000\003\000\000\000\003\000\000\000\003\000\000\000\003\000\000\000\003\000\000\000\003\000\000\000\026\000\000\000\003\000\000\000\003\000\000\000\026\000\000\000\034\000\000\000\003\000\000\000\026\000\000\000\034\000\000\000\034\000\000\000\003\000\000\000\003\000\000\000\003\000\000\000\003\000\000\000\003\000\000\000\003\000\000\000\003\000\000\000\026\000\000\000\003\000\000\000\003\000\000\000\026\000\000\000\034\000\000\000\003\000\000\000\026\000\000\000\034\000\000\000\035\000\000\000\007\000\000\000\007\000\000\000\007\000\000\000\007\000\000\000\007\000\000\000\007\000\000\000\007\000\000\000\007\000\000\000\007\000\000\000\007\000\000\000\007\000\000\000\010\000\000\000\007\000\000\000\007\000\000\000\010\000\000\000\t\000\000\000\010\000\000\000\010\000\000\000\010\000\000\000\010\000\000\000\010\000\000\000\010\000\000\000\010\000\000\000\024\000\000\000\010\000\000\000\010\000\000\000\024\000\000\000\003\000\000\000\010\000\000\000\024\000\000\000\003\000\000\000\026\000\000\000\007\000\000\000\007\000\000\000\007\000\000\000\007\000\000\000\007\000\000\000\007\000\000\000\007\000\000\000\010\000\000\000\007\000\000\000\007\000\000\000\010\000\000\000\t\000\000\000\007\000\000\000\010\000\000\000\t\000\000\000\026\000\000\000\003\000\000\000\003\000\000\000\003\000\000\000\003\000\000\000\003\000\000\000\003\000\000\000\003\000\000\000\r\000\000\000\003\000\000\000\003\000\000\000\r\000\000\000\024\000\000\000\003\000\000\000\r\000\000\000\024\000\000\000\003\000\000\000\010\000\000\000\010\000\000\000\010\000\000\000\010\000\000\000\010\000\000\000\010\000\000\000\010\000\000\000\t\000\000\000\010\000\000\000\010\000\000\000\t\000\000\000\025\000\000\000\010\000\000\000\t\000\000\000\025\000\000\000\010\000\000\000\007\000\000\000\007\000\000\000\007\000\000\000\007\000\000\000\007\000\000\000\007\000\000\000\007\000\000\000\010\000\000\000\007\000\000\000\007\000\000\000\010\000\000\000\024\000\000\000\007\000\000\000\010\000\000\000\024\000\000\000\010\000\000\000\007\000\000\000\007\000\000\000\007\000\000\000\007\000\000\000\007\000\000\000\007\000\000\000\007\000\000\000\010\000\000\000\007\000\000\000\007\000\000\000\010\000\000\000\t\000\000\000\007\000\000\000\010\000\000\000\t\000\000\000\r\000\000\000\010\000\000\000\010\000\000\000\010\000\000\000\010\000\000\000\010\000\000\000\010\000\000\000\010\000\000\000\t\000\000\000\010\000\000\000\010\000\000\000\t\000\000\000\r\000\000\000\010\000\000\000\t\000\000\000\r\000\000\000\033\000\000\000\010\000\000\000\010\000\000\000\010\000\000\000\010\000\000\000\010\000\000\000\010\000\000\000\010\000\000\000\024\000\000\000\010\000\000\000\010\000\000\000\024\000\000\000\010\000\000\000\010\000\000\000\024\000\000\000\010\000\000\000\t\000\000\000\010\000\000\000\010\000\000\000\010\000\000\000\010\000\000\000\010\000\000\000\010\000\000\000\010\000\000\000\033\000\000\000\010\000\000\000\010\000\000\000\033\000\000\000\035\000\000\000\010\000\000\000\033\000\000\000\035\000\000\000\t\000\000\000\003\000\000\000\003\000\000\000\003\000\000\000\003\000\000\000\003\000\000\000\003\000\000\000\003\000\000\000\r\000\000\000\003\000\000\000\003\000\000\000\r\000\000\000\t\000\000\000\003\000\000\000\r\000\000\000\t\000\000\000\026\000\000\000\003\000\000\000\003\000\000\000\003\000\000\000\003\000\000\000\003\000\000\000\003\000\000\000\003\000\000\000\025\000\000\000\003\000\000\000\003\000\000\000\025\000\000\000\007\000\000\000\003\000\000\000\025\000\000\000\007\000\000\000\003\000\000\000\010\000\000\000\010\000\000\000\010\000\000\000\010\000\000\000\010\000\000\000\010\000\000\000\010\000\000\000\016\000\000\000\010\000\000\000\010\000\000\000\016\000\000\000\014\000\000\000\010\000\000\000\016\000\000\000\014\000\000\000\t\000\000\000\007\000\000\000\007\000\000\000\007\000\000\000\007\000\000\000\007\000\000\000\007\000\000\000\007\000\000\000\003\000\000\000\007\000\000\000\007\000\000\000\003\000\000\000\026\000\000\000\007\000\000\000\003\000\000\000\026\000\000\000\035\000\000\000\010\000\000\000\010\000\000\000\010\000\000\000\010\000\000\000\010\000\000\000\010\000\000\000\010\000\000\000\033\000\000\000\010\000\000\000\010\000\000\000\033\000\000\000\034\000\000\000\010\000\000\000\033\000\000\000\034\000\000\000\034\000\000\000\007\000\000\000\007\000\000\000\007\000\000\000\007\000\000\000\007\000\000\000\007\000\000\000\007\000\000\000\010\000\000\000\007\000\000\000\007\000\000\000\010\000\000\000\024\000\000\000\007\000\000\000\010\000\000\000\024\000\000\000\003\000\000\000\010\000\000\000\010\000\000\000\010\000\000\000\010\000\000\000\010\000\000\000\010\000\000\000\010\000\000\000\t\000\000\000\010\000\000\000\010\000\000\000\t\000\000\000\026\000\000\000\010\000\000\000\t\000\000\000\026\000\000\000\034\000\000\000\007\000\000\000\007\000\000\000\007\000\000\000\007\000\000\000\007\000\000\000\007\000\000\000\007\000\000\000\003\000\000\000\007\000\000\000\007\000\000\000\003\000\000\000\025\000\000\000\007\000\000\000\003\000\000\000\025\000\000\000\003\000\000\000\010\000\000\000\010\000\000\000\010\000\000\000\010\000\000\000\010\000\000\000\010\000\000\000\010\000\000\000\024\000\000\000\010\000\000\000\010\000\000\000\024\000\000\000\007\000\000\000\010\000\000\000\024\000\000\000\007\000\000\000\003\000\000\000\003\000\000\000\003\000\000\000\003\000\000\000\003\000\000\000\003\000\000\000\003\000\000\000\003\000\000\000\r\000\000\000\003\000\000\000\003\000\000\000\r\000\000\000\024\000\000\000\003\000\000\000\r\000\000\000\024\000\000\000\010\000\000\000\003\000\000\000\003\000\000\000\003\000\000\000\003\000\000\000\003\000\000\000\003\000\000\000\003\000\000\000\r\000\000\000\003\000\000\000\003\000\000\000\r\000\000\000\033\000\000\000\003\000\000\000\r\000\000\000\033\000\000\000\034\000\000\000\007\000\000\000\007\000\000\000\007\000\000\000\007\000\000\000\007\000\000\000\007\000\000\000\007\000\000\000\007\000\000\000\007\000\000\000\007\000\000\000\007\000\000\000\003\000\000\000\007\000\000\000\007\000\000\000\003\000\000\000\026\000\000\000\010\000\000\000\010\000\000\000\010\000\000\000\010\000\000\000\010\000\000\000\010\000\000\000\010\000\000\000\016\000\000\000\010\000\000\000\010\000\000\000\016\000\000\000\014\000\000\000\010\000\000\000\016\000\000\000\014\000\000\000\033\000\000\000\010\000\000\000\010\000\000\000\010\000\000\000\010\000\000\000\010\000\000\000\010\000\000\000\010\000\000\000\033\000\000\000\010\000\000\000\010\000\000\000\033\000\000\000\034\000\000\000\010\000\000\000\033\000\000\000\034\000\000\000\027\000\000\000\007\000\000\000\007\000\000\000\007\000\000\000\007\000\000\000\007\000\000\000\007\000\000\000\007\000\000\000\010\000\000\000\007\000\000\000\007\000\000\000\010\000\000\000\033\000\000\000\007\000\000\000\010\000\000\000\033\000\000\000\035\000\000\000\010\000\000\000\010\000\000\000\010\000\000\000\010\000\000\000\010\000\000\000\010\000\000\000\010\000\000\000\033\000\000\000\010\000\000\000\010\000\000\000\033\000\000\000\027\000\000\000\010\000\000\000\033\000\000\000\027\000\000\000\r\000\000\000\003\000\000\000\003\000\000\000\003\000\000\000\003\000\000\000\003\000\000\000\003\000\000\000\003\000\000\000\025\000\000\000\003\000\000\000\003\000\000\000\025\000\000\000\003\000\000\000\003\000\000\000\025\000\000\000\003\000\000\000\026\000\000\000\003\000\000\000\003\000\000\000\003\000\000\000\003\000\000\000\003\000\000\000\003\000\000\000\003\000\000\000\026\000\000\000\003\000\000\000\003\000\000\000\026\000\000\000\035\000\000\000\003\000\000\000\026\000\000\000\035\000\000\000\033\000\000\000\003\000\000\000\003\000\000\000\003\000\000\000\003\000\000\000\003\000\000\000\003\000\000\000\003\000\000\000\026\000\000\000\003\000\000\000\003\000\000\000\026\000\000\000\034\000\000\000\003\000\000\000\026\000\000\000\034\000\000\000\027\000\000\000\007\000\000\000\007\000\000\000\007\000\000\000\007\000\000\000\007\000\000\000\007\000\000\000\007\000\000\000\007\000\000\000\007\000\000\000\007\000\000\000\007\000\000\000\007\000\000\000\007\000\000\000\007\000\000\000\007\000\000\000\010\000\000\000\007\000\000\000\007\000\000\000\007\000\000\000\007\000\000\000\007\000\000\000\007\000\000\000\007\000\000\000\007\000\000\000\007\000\000\000\007\000\000\000\007\000\000\000\010\000\000\000\007\000\000\000\007\000\000\000\010\000\000\000\033\000\000\000\007\000\000\000\007\000\000\000\007\000\000\000\007\000\000\000\007\000\000\000\007\000\000\000\007\000\000\000\003\000\000\000\007\000\000\000\007\000\000\000\003\000\000\000\026\000\000\000\007\000\000\000\003\000\000\000\026\000\000\000\034\000\000\000\003\000\000\000\003\000\000\000\003\000\000\000\003\000\000\000\003\000\000\000\003\000\000\000\003\000\000\000\025\000\000\000\003\000\000\000\003\000\000\000\025\000\000\000\010\000\000\000\003\000\000\000\025\000\000\000\010\000\000\000\033\000\000\000\003\000\000\000\003\000\000\000\003\000\000\000\003\000\000\000\003\000\000\000\003\000\000\000\003\000\000\000\r\000\000\000\003\000\000\000\003\000\000\000\r\000\000\000\016\000\000\000\003\000\000\000\r\000\000\000\016\000\000\000\014\000\000\000\010\000\000\000\010\000\000\000\010\000\000\000\010\000\000\000\010\000\000\000\010\000\000\000\010\000\000\000\024\000\000\000\010\000\000\000\010\000\000\000\024\000\000\000\007\000\000\000\010\000\000\000\024\000\000\000\007\000\000\000\010\000\000\000\003\000\000\000\003\000\000\000\003\000\000\000\003\000\000\000\003\000\000\000\003\000\000\000\003\000\000\000\026\000\000\000\003\000\000\000\003\000\000\000\026\000\000\000\027\000\000\000\003\000\000\000\026\000\000\000\027\000\000\000\026\000\000\000\007\000\000\000\007\000\000\000\007\000\000\000\007\000\000\000\007\000\000\000\007\000\000\000\007\000\000\000\003\000\000\000\007\000\000\000\007\000\000\000\003\000\000\000\r\000\000\000\007\000\000\000\003\000\000\000\r\000\000\000\t\000\000\000\007\000\000\000\007\000\000\000\007\000\000\000\007\000\000\000\007\000\000\000\007\000\000\000\007\000\000\000\007\000\000\000\007\000\000\000\007\000\000\000\007\000\000\000\007\000\000\000\007\000\000\000\007\000\000\000\007\000\000\000\003\000\000\000\003\000\000\000\003\000\000\000\003\000\000\000\003\000\000\000\003\000\000\000\003\000\000\000\003\000\000\000\r\000\000\000\003\000\000\000\003\000\000\000\r\000\000\000\033\000\000\000\003\000\000\000\r\000\000\000\033\000\000\000\027\000\000\000\007\000\000\000\007\000\000\000\007\000\000\000\007\000\000\000\007\000\000\000\007\000\000\000\007\000\000\000\010\000\000\000\007\000\000\000\007\000\000\000\010\000\000\000\033\000\000\000\007\000\000\000\010\000\000\000\033\000\000\000\027\000\000\000\003\000\000\000\003\000\000\000\003\000\000\000\003\000\000\000\003\000\000\000\003\000\000\000\003\000\000\000\025\000\000\000\003\000\000\000\003\000\000\000\025\000\000\000\003\000\000\000\003\000\000\000\025\000\000\000\003\000\000\000\r\000\000\000\010\000\000\000\010\000\000\000\010\000\000\000\010\000\000\000\010\000\000\000\010\000\000\000\010\000\000\000\t\000\000\000\010\000\000\000\010\000\000\000\t\000\000\000\026\000\000\000\010\000\000\000\t\000\000\000\026\000\000\000\035\000\000\000\010\000\000\000\010\000\000\000\010\000\000\000\010\000\000\000\010\000\000\000\010\000\000\000\010\000\000\000\033\000\000\000\010\000\000\000\010\000\000\000\033\000\000\000\027\000\000\000\010\000\000\000\033\000\000\000\027\000\000\000\026\000\000\000\003\000\000\000\003\000\000\000\003\000\000\000\003\000\000\000\003\000\000\000\003\000\000\000\003\000\000\000\004\000\000\000\003\000\000\000\003\000\000\000\004\000\000\000\022\000\000\000\006\000\000\000\006\000\000\000\006\000\000\000\006\000\000\000\006\000\000\000\006\000\000\000\006\000\000\000\006\000\000\000\006\000\000\000\006\000\000\000\006\000\000\000\003\000\000\000!\000\000\000!\000\000\000!\000\000\000!\000\000\000!\000\000\000!\000\000\000!\000\000\000\002\000\000\000!\000\000\000!\000\000\000\002\000\000\000\010\000\000\000\003\000\000\000\003\000\000\000\003\000\000\000\003\000\000\000\003\000\000\000\003\000\000\000\003\000\000\000\026\000\000\000\003\000\000\000\003\000\000\000\026\000\000\000\037\000\000\000\010\000\000\000\010\000\000\000\010\000\000\000\010\000\000\000\010\000\000\000\010\000\000\000\010\000\000\000\033\000\000\000\010\000\000\000\010\000\000\000\033\000\000\000\037\000\000\000!\000\000\000!\000\000\000!\000\000\000!\000\000\000!\000\000\000!\000\000\000!\000\000\000\002\000\000\000!\000\000\000!\000\000\000\002\000\000\000\003\000\000\000\006\000\000\000\006\000\000\000\006\000\000\000\006\000\000\000\006\000\000\000\006\000\000\000\006\000\000\000\006\000\000\000\006\000\000\000\006\000\000\000\006\000\000\000\010\000\000\000\007\000\000\000\007\000\000\000\007\000\000\000\007\000\000\000\007\000\000\000\007\000\000\000\007\000\000\000\006\000\000\000\007\000\000\000\007\000\000\000\006\000\000\000\010\000\000\000\007\000\000\000\007\000\000\000\007\000\000\000\007\000\000\000\007\000\000\000\007\000\000\000\007\000\000\000\006\000\000\000\007\000\000\000\007\000\000\000\006\000\000\000\003\000\000\000\006\000\000\000\006\000\000\000\006\000\000\000\006\000\000\000\006\000\000\000\006\000\000\000\006\000\000\000\007\000\000\000\006\000\000\000\006\000\000\000\007\000\000\000\010\000\000\000\006\000\000\000\006\000\000\000\006\000\000\000\006\000\000\000\006\000\000\000\006\000\000\000\006\000\000\000\003\000\000\000\006\000\000\000\006\000\000\000\003\000\000\000\026\000\000\000\006\000\000\000\006\000\000\000\006\000\000\000\006\000\000\000\006\000\000\000\006\000\000\000\006\000\000\000\010\000\000\000\006\000\000\000\006\000\000\000\010\000\000\000\033\000\000\000\006\000\000\000\006\000\000\000\006\000\000\000\006\000\000\000\006\000\000\000\006\000\000\000\006\000\000\000\010\000\000\000\006\000\000\000\006\000\000\000\010\000\000\000\t\000\000\000\006\000\000\000\006\000\000\000\006\000\000\000\006\000\000\000\006\000\000\000\006\000\000\000\006\000\000\000\003\000\000\000\006\000\000\000\006\000\000\000\003\000\000\000\r\000\000\000\006\000\000\000\006\000\000\000\006\000\000\000\006\000\000\000\006\000\000\000\006\000\000\000\006\000\000\000\007\000\000\000\006\000\000\000\006\000\000\000\007\000\000\000\003\000\000\000\007\000\000\000\007\000\000\000\007\000\000\000\007\000\000\000\007\000\000\000\007\000\000\000\007\000\000\000\010\000\000\000\007\000\000\000\007\000\000\000\010\000\000\000\033\000\000\000\010\000\000\000\010\000\000\000\010\000\000\000\010\000\000\000\010\000\000\000\010\000\000\000\010\000\000\000\033\000\000\000\010\000\000\000\010\000\000\000\033\000\000\000\027\000\000\000\010\000\000\000\010\000\000\000\010\000\000\000\010\000\000\000\010\000\000\000\010\000\000\000\010\000\000\000\024\000\000\000\010\000\000\000\010\000\000\000\024\000\000\000\010\000\000\000\007\000\000\000\007\000\000\000\007\000\000\000\007\000\000\000\007\000\000\000\007\000\000\000\007\000\000\000\003\000\000\000\007\000\000\000\007\000\000\000\003\000\000\000\r\000\000\000\007\000\000\000\007\000\000\000\007\000\000\000\007\000\000\000\007\000\000\000\007\000\000\000\007\000\000\000\007\000\000\000\007\000\000\000\007\000\000\000\007\000\000\000\010\000\000\000\003\000\000\000\003\000\000\000\003\000\000\000\003\000\000\000\003\000\000\000\003\000\000\000\003\000\000\000\025\000\000\000\003\000\000\000\003\000\000\000\025\000\000\000\010\000\000\000\010\000\000\000\010\000\000\000\010\000\000\000\010\000\000\000\010\000\000\000\010\000\000\000\010\000\000\000\016\000\000\000\010\000\000\000\010\000\000\000\016\000\000\000\014\000\000\000\003\000\000\000\003\000\000\000\003\000\000\000\003\000\000\000\003\000\000\000\003\000\000\000\003\000\000\000\026\000\000\000\003\000\000\000\003\000\000\000\026\000\000\000\034\000\000\000\003\000\000\000\003\000\000\000\003\000\000\000\003\000\000\000\003\000\000\000\003\000\000\000\003\000\000\000\025\000\000\000\003\000\000\000\003\000\000\000\025\000\000\000\003\000\000\000\003\000\000\000\003\000\000\000\003\000\000\000\003\000\000\000\003\000\000\000\003\000\000\000\003\000\000\000\026\000\000\000\003\000\000\000\003\000\000\000\026\000\000\000\027\000\000\000\007\000\000\000\007\000\000\000\007\000\000\000\007\000\000\000\007\000\000\000\007\000\000\000\007\000\000\000\003\000\000\000\007\000\000\000\007\000\000\000\003\000\000\000\026\000\000\000\010\000\000\000\010\000\000\000\010\000\000\000\010\000\000\000\010\000\000\000\010\000\000\000\010\000\000\000\033\000\000\000\010\000\000\000\010\000\000\000\033\000\000\000\034\000\000\000\007\000\000\000\007\000\000\000\007\000\000\000\007\000\000\000\007\000\000\000\007\000\000\000\007\000\000\000\010\000\000\000\007\000\000\000\007\000\000\000\010\000\000\000\t\000\000\000\003\000\000\000\003\000\000\000\003\000\000\000\003\000\000\000\003\000\000\000\003\000\000\000\003\000\000\000\r\000\000\000\003\000\000\000\003\000\000\000\r\000\000\000\033\000\000\000\007\000\000\000\007\000\000\000\007\000\000\000\007\000\000\000\007\000\000\000\007\000\000\000\007\000\000\000\007\000\000\000\007\000\000\000\007\000\000\000\007\000\000\000\003\000\000\000\003\000\000\000\003\000\000\000\003\000\000\000\003\000\000\000\003\000\000\000\003\000\000\000\003\000\000\000\r\000\000\000\003\000\000\000\003\000\000\000\r\000\000\000\t\000\000\000\010\000\000\000\010\000\000\000\010\000\000\000\010\000\000\000\010\000\000\000\010\000\000\000\010\000\000\000\024\000\000\000\010\000\000\000\010\000\000\000\024\000\000\000\003\000\000\000\003\000\000\000\003\000\000\000\003\000\000\000\003\000\000\000\003\000\000\000\003\000\000\000\003\000\000\000\026\000\000\000\003\000\000\000\003\000\000\000\026\000\000\000\035\000\000\000\010\000\000\000\010\000\000\000\010\000\000\000\010\000\000\000\010\000\000\000\010\000\000\000\010\000\000\000\033\000\000\000\010\000\000\000\010\000\000\000\033\000\000\000\035\000\000\000\010\000\000\000\010\000\000\000\010\000\000\000\010\000\000\000\010\000\000\000\010\000\000\000\010\000\000\000\t\000\000\000\010\000\000\000\010\000\000\000\t\000\000\000\r\000\000\000\010\000\000\000\010\000\000\000\010\000\000\000\010\000\000\000\010\000\000\000\010\000\000\000\010\000\000\000\t\000\000\000\010\000\000\000\010\000\000\000\t\000\000\000\026\000\000\000\006\000\000\000\006\000\000\000\006\000\000\000\006\000\000\000\006\000\000\000\006\000\000\000\006\000\000\000\003\000\000\000\006\000\000\000\006\000\000\000\006\000\000\000\006\000\000\000\006\000\000\000\006\000\000\000\006\000\000\000\010\000\000\000\007\000\000\000\007\000\000\000\007\000\000\000\007\000\000\000\007\000\000\000\007\000\000\000\007\000\000\000\003\000\000\000\003\000\000\000\003\000\000\000\003\000\000\000\003\000\000\000\003\000\000\000\003\000\000\000\003\000\000\000\026\000\000\000\003\000\000\000\003\000\000\000\003\000\000\000\003\000\000\000\003\000\000\000\003\000\000\000\003\000\000\000\r\000\000\000\010\000\000\000\010\000\000\000\010\000\000\000\010\000\000\000\010\000\000\000\010\000\000\000\010\000\000\000\033\000\000\000\007\000\000\000\007\000\000\000\007\000\000\000\007\000\000\000\007\000\000\000\007\000\000\000\007\000\000\000\010\000\000\000\010\000\000\000\010\000\000\000\010\000\000\000\010\000\000\000\010\000\000\000\010\000\000\000\010\000\000\000\t\000\000\000\010\000\000\000\010\000\000\000\010\000\000\000\010\000\000\000\003\000\000\000\003\000\000\000\003\000\000\000\003\000\000\000\037\000\000\000\037\000\000\000\037\000\000\000\037\000\000\000\037\000\000\000\037\000\000\000\037\000\000\000 \000\000\000\037\000\000\000\037\000\000\000 \000\000\000\035\000\000\000\037\000\000\000 \000\000\000\035\000\000\000\016\000\000\000\035\000\000\000\035\000\000\000\035\000\000\000\035\000\000\000\035\000\000\000\035\000\000\000\035\000\000\000\016\000\000\000\035\000\000\000\035\000\000\000\016\000\000\000\"\000\000\000\035\000\000\000\016\000\000\000\"\000\000\000\"\000\000\000\035\000\000\000\035\000\000\000\035\000\000\000\035\000\000\000\035\000\000\000\035\000\000\000\035\000\000\000\016\000\000\000\035\000\000\000\035\000\000\000\016\000\000\000\017\000\000\000\035\000\000\000\016\000\000\000\017\000\000\000\020\000\000\000\034\000\000\000\034\000\000\000\034\000\000\000\034\000\000\000\034\000\000\000\034\000\000\000\034\000\000\000\035\000\000\000\034\000\000\000\034\000\000\000\035\000\000\000\016\000\000\000\034\000\000\000\035\000\000\000\016\000\000\000\"\000\000\000\027\000\000\000\027\000\000\000\027\000\000\000\027\000\000\000\027\000\000\000\027\000\000\000\027\000\000\000\r\000\000\000\027\000\000\000\027\000\000\000\r\000\000\000\016\000\000\000\027\000\000\000\r\000\000\000\016\000\000\000\"\000\000\000\035\000\000\000\035\000\000\000\035\000\000\000\035\000\000\000\035\000\000\000\035\000\000\000\035\000\000\000\t\000\000\000\035\000\000\000\035\000\000\000\t\000\000\000\r\000\000\000\035\000\000\000\t\000\000\000\r\000\000\000\016\000\000\000\034\000\000\000\034\000\000\000\034\000\000\000\034\000\000\000\034\000\000\000\034\000\000\000\034\000\000\000\034\000\000\000\034\000\000\000\034\000\000\000\034\000\000\000\035\000\000\000\034\000\000\000\034\000\000\000\035\000\000\000\016\000\000\000\035\000\000\000\035\000\000\000\035\000\000\000\035\000\000\000\035\000\000\000\035\000\000\000\035\000\000\000\024\000\000\000\035\000\000\000\035\000\000\000\024\000\000\000\010\000\000\000\035\000\000\000\024\000\000\000\010\000\000\000\016\000\000\000\034\000\000\000\034\000\000\000\034\000\000\000\034\000\000\000\034\000\000\000\034\000\000\000\034\000\000\000\027\000\000\000\034\000\000\000\034\000\000\000\027\000\000\000\r\000\000\000\034\000\000\000\027\000\000\000\r\000\000\000\016\000\000\000\035\000\000\000\035\000\000\000\035\000\000\000\035\000\000\000\035\000\000\000\035\000\000\000\035\000\000\000\033\000\000\000\035\000\000\000\035\000\000\000\033\000\000\000\035\000\000\000\035\000\000\000\033\000\000\000\035\000\000\000\016\000\000\000\035\000\000\000\035\000\000\000\035\000\000\000\035\000\000\000\035\000\000\000\035\000\000\000\035\000\000\000\016\000\000\000\035\000\000\000\035\000\000\000\016\000\000\000\017\000\000\000\035\000\000\000\016\000\000\000\017\000\000\000\013\000\000\000\027\000\000\000\027\000\000\000\027\000\000\000\027\000\000\000\027\000\000\000\027\000\000\000\027\000\000\000\025\000\000\000\027\000\000\000\027\000\000\000\025\000\000\000\010\000\000\000\027\000\000\000\025\000\000\000\010\000\000\000\016\000\000\000\027\000\000\000\027\000\000\000\027\000\000\000\027\000\000\000\027\000\000\000\027\000\000\000\027\000\000\000\026\000\000\000\027\000\000\000\027\000\000\000\026\000\000\000\035\000\000\000\027\000\000\000\026\000\000\000\035\000\000\000\016\000\000\000\035\000\000\000\035\000\000\000\035\000\000\000\035\000\000\000\035\000\000\000\035\000\000\000\035\000\000\000\016\000\000\000\035\000\000\000\035\000\000\000\016\000\000\000\014\000\000\000\035\000\000\000\016\000\000\000\014\000\000\000\016\000\000\000\035\000\000\000\035\000\000\000\035\000\000\000\035\000\000\000\035\000\000\000\035\000\000\000\035\000\000\000\016\000\000\000\035\000\000\000\035\000\000\000\016\000\000\000\"\000\000\000\027\000\000\000\027\000\000\000\027\000\000\000\027\000\000\000\027\000\000\000\027\000\000\000\027\000\000\000\r\000\000\000\027\000\000\000\027\000\000\000\r\000\000\000\016\000\000\000\034\000\000\000\034\000\000\000\034\000\000\000\034\000\000\000\034\000\000\000\034\000\000\000\034\000\000\000\035\000\000\000\034\000\000\000\034\000\000\000\035\000\000\000\016\000\000\000\035\000\000\000\035\000\000\000\035\000\000\000\035\000\000\000\035\000\000\000\035\000\000\000\035\000\000\000\016\000\000\000\014\000\000\000\014\000\000\000\014\000\000\000\014\000\000\000\014\000\000\000\014\000\000\000\014\000\000\000\033\000\000\000\014\000\000\000\014\000\000\000\033\000\000\000\037\000\000\000\014\000\000\000\033\000\000\000\037\000\000\000 \000\000\000\"\000\000\000\"\000\000\000\"\000\000\000\"\000\000\000\"\000\000\000\"\000\000\000\"\000\000\000\"\000\000\000\"\000\000\000\"\000\000\000\"\000\000\000\014\000\000\000\"\000\000\000\"\000\000\000\014\000\000\000\033\000\000\000\"\000\000\000\"\000\000\000\"\000\000\000\"\000\000\000\"\000\000\000\"\000\000\000\"\000\000\000\014\000\000\000\"\000\000\000\"\000\000\000\014\000\000\000\033\000\000\000\"\000\000\000\014\000\000\000\033\000\000\000\034\000\000\000\"\000\000\000\"\000\000\000\"\000\000\000\"\000\000\000\"\000\000\000\"\000\000\000\"\000\000\000\014\000\000\000\"\000\000\000\"\000\000\000\014\000\000\000\t\000\000\000\"\000\000\000\014\000\000\000\t\000\000\000\026\000\000\000\014\000\000\000\014\000\000\000\014\000\000\000\014\000\000\000\014\000\000\000\014\000\000\000\014\000\000\000\t\000\000\000\014\000\000\000\014\000\000\000\t\000\000\000\026\000\000\000\014\000\000\000\t\000\000\000\026\000\000\000\034\000\000\000\014\000\000\000\014\000\000\000\014\000\000\000\014\000\000\000\014\000\000\000\014\000\000\000\014\000\000\000\024\000\000\000\014\000\000\000\014\000\000\000\024\000\000\000\003\000\000\000\014\000\000\000\024\000\000\000\003\000\000\000\026\000\000\000\014\000\000\000\014\000\000\000\014\000\000\000\014\000\000\000\014\000\000\000\014\000\000\000\014\000\000\000\033\000\000\000\014\000\000\000\014\000\000\000\033\000\000\000\027\000\000\000\014\000\000\000\033\000\000\000\027\000\000\000\026\000\000\000\014\000\000\000\014\000\000\000\014\000\000\000\014\000\000\000\014\000\000\000\014\000\000\000\014\000\000\000\t\000\000\000\014\000\000\000\014\000\000\000\t\000\000\000\r\000\000\000\014\000\000\000\t\000\000\000\r\000\000\000\033\000\000\000\014\000\000\000\014\000\000\000\014\000\000\000\014\000\000\000\014\000\000\000\014\000\000\000\014\000\000\000\016\000\000\000\014\000\000\000\014\000\000\000\016\000\000\000\014\000\000\000\014\000\000\000\016\000\000\000\014\000\000\000\033\000\000\000\014\000\000\000\014\000\000\000\014\000\000\000\014\000\000\000\014\000\000\000\014\000\000\000\014\000\000\000\033\000\000\000\014\000\000\000\014\000\000\000\033\000\000\000\034\000\000\000\014\000\000\000\033\000\000\000\034\000\000\000\034\000\000\000\014\000\000\000\014\000\000\000\014\000\000\000\014\000\000\000\014\000\000\000\014\000\000\000\014\000\000\000\033\000\000\000\014\000\000\000\014\000\000\000\033\000\000\000\035\000\000\000\014\000\000\000\033\000\000\000\035\000\000\000\033\000\000\000\014\000\000\000\014\000\000\000\014\000\000\000\014\000\000\000\014\000\000\000\014\000\000\000\014\000\000\000\024\000\000\000\014\000\000\000\014\000\000\000\024\000\000\000\010\000\000\000\014\000\000\000\024\000\000\000\010\000\000\000\033\000\000\000\017\000\000\000\017\000\000\000\017\000\000\000\017\000\000\000\017\000\000\000\017\000\000\000\017\000\000\000\013\000\000\000\017\000\000\000\017\000\000\000\013\000\000\000\014\000\000\000\017\000\000\000\013\000\000\000\014\000\000\000\033\000\000\000\"\000\000\000\"\000\000\000\"\000\000\000\"\000\000\000\"\000\000\000\"\000\000\000\"\000\000\000\014\000\000\000\"\000\000\000\"\000\000\000\014\000\000\000\033\000\000\000\014\000\000\000\014\000\000\000\014\000\000\000\014\000\000\000\014\000\000\000\014\000\000\000\014\000\000\000\t\000\000\000\014\000\000\000\014\000\000\000\t\000\000\000\026\000\000\000\014\000\000\000\014\000\000\000\014\000\000\000\014\000\000\000\014\000\000\000\014\000\000\000\014\000\000\000\033\000\000\000\014\000\000\000\014\000\000\000\033\000\000\000\034\000\000\000\014\000\000\000\014\000\000\000\014\000\000\000\014\000\000\000\014\000\000\000\014\000\000\000\014\000\000\000\033\000\000\000\n\000\000\000\n\000\000\000\n\000\000\000\n\000\000\000\n\000\000\000\n\000\000\000\n\000\000\000\020\000\000\000\n\000\000\000\n\000\000\000\020\000\000\000\n\000\000\000\n\000\000\000\020\000\000\000\n\000\000\000\020\000\000\000\021\000\000\000\021\000\000\000\021\000\000\000\021\000\000\000\021\000\000\000\021\000\000\000\021\000\000\000#\000\000\000\021\000\000\000\021\000\000\000#\000\000\000\021\000\000\000\021\000\000\000#\000\000\000\021\000\000\000#\000\000\000\n\000\000\000\n\000\000\000\n\000\000\000\n\000\000\000\n\000\000\000\n\000\000\000\n\000\000\000\020\000\000\000\n\000\000\000\n\000\000\000\020\000\000\000\021\000\000\000\n\000\000\000\020\000\000\000\021\000\000\000#\000\000\000\021\000\000\000\021\000\000\000\021\000\000\000\021\000\000\000\021\000\000\000\021\000\000\000\021\000\000\000#\000\000\000\021\000\000\000\021\000\000\000#\000\000\000\n\000\000\000\021\000\000\000#\000\000\000\n\000\000\000\020\000\000\000\n\000\000\000\n\000\000\000\n\000\000\000\n\000\000\000\n\000\000\000\n\000\000\000\n\000\000\000\013\000\000\000\n\000\000\000\n\000\000\000\013\000\000\000\017\000\000\000\n\000\000\000\013\000\000\000\017\000\000\000\020\000\000\000\n\000\000\000\n\000\000\000\n\000\000\000\n\000\000\000\n\000\000\000\n\000\000\000\n\000\000\000\020\000\000\000\021\000\000\000\021\000\000\000\021\000\000\000\021\000\000\000\021\000\000\000\021\000\000\000\021\000\000\000#\000\000\000\024\000\000\000\024\000\000\000\024\000\000\000\024\000\000\000\024\000\000\000\024\000\000\000\024\000\000\000!\000\000\000\024\000\000\000\024\000\000\000!\000\000\000\001\000\000\000\024\000\000\000!\000\000\000\001\000\000\000\002\000\000\000\024\000\000\000\024\000\000\000\024\000\000\000\024\000\000\000\024\000\000\000\024\000\000\000\024\000\000\000\006\000\000\000\024\000\000\000\024\000\000\000\006\000\000\000!\000\000\000\024\000\000\000\006\000\000\000!\000\000\000\002\000\000\000\024\000\000\000\024\000\000\000\024\000\000\000\024\000\000\000\024\000\000\000\024\000\000\000\024\000\000\000!\000\000\000\024\000\000\000\024\000\000\000!\000\000\000\002\000\000\000\024\000\000\000!\000\000\000\002\000\000\000\006\000\000\000\016\000\000\000\016\000\000\000\016\000\000\000\016\000\000\000\016\000\000\000\016\000\000\000\016\000\000\000\"\000\000\000\016\000\000\000\016\000\000\000\"\000\000\000\"\000\000\000\016\000\000\000\"\000\000\000\"\000\000\000\"\000\000\000\024\000\000\000\024\000\000\000\024\000\000\000\024\000\000\000\024\000\000\000\024\000\000\000\024\000\000\000\006\000\000\000\024\000\000\000\024\000\000\000\006\000\000\000\006\000\000\000\024\000\000\000\006\000\000\000\006\000\000\000\006\000\000\000\t\000\000\000\t\000\000\000\t\000\000\000\t\000\000\000\t\000\000\000\t\000\000\000\t\000\000\000\025\000\000\000\t\000\000\000\t\000\000\000\025\000\000\000!\000\000\000\t\000\000\000\025\000\000\000!\000\000\000\002\000\000\000\024\000\000\000\024\000\000\000\024\000\000\000\024\000\000\000\024\000\000\000\024\000\000\000\024\000\000\000\007\000\000\000\024\000\000\000\024\000\000\000\007\000\000\000\006\000\000\000\024\000\000\000\007\000\000\000\006\000\000\000\006\000\000\000\024\000\000\000\024\000\000\000\024\000\000\000\024\000\000\000\024\000\000\000\024\000\000\000\024\000\000\000\006\000\000\000\024\000\000\000\024\000\000\000\006\000\000\000\007\000\000\000\024\000\000\000\006\000\000\000\007\000\000\000\006\000\000\000\024\000\000\000\024\000\000\000\024\000\000\000\024\000\000\000\024\000\000\000\024\000\000\000\024\000\000\000\006\000\000\000\024\000\000\000\024\000\000\000\006\000\000\000\006\000\000\000\024\000\000\000\006\000\000\000\006\000\000\000\007\000\000\000\033\000\000\000\033\000\000\000\033\000\000\000\033\000\000\000\033\000\000\000\033\000\000\000\033\000\000\000\037\000\000\000\033\000\000\000\033\000\000\000\037\000\000\000 \000\000\000\033\000\000\000\037\000\000\000 \000\000\000\027\000\000\000\033\000\000\000\033\000\000\000\033\000\000\000\033\000\000\000\033\000\000\000\033\000\000\000\033\000\000\000\037\000\000\000\033\000\000\000\033\000\000\000\037\000\000\000 \000\000\000\033\000\000\000\037\000\000\000 \000\000\000\034\000\000\000\033\000\000\000\033\000\000\000\033\000\000\000\033\000\000\000\033\000\000\000\033\000\000\000\033\000\000\000\034\000\000\000\033\000\000\000\033\000\000\000\034\000\000\000\037\000\000\000\033\000\000\000\034\000\000\000\037\000\000\000 \000\000\000\t\000\000\000\t\000\000\000\t\000\000\000\t\000\000\000\t\000\000\000\t\000\000\000\t\000\000\000\004\000\000\000\t\000\000\000\t\000\000\000\004\000\000\000\022\000\000\000\t\000\000\000\004\000\000\000\022\000\000\000\026\000\000\000\033\000\000\000\033\000\000\000\033\000\000\000\033\000\000\000\033\000\000\000\033\000\000\000\033\000\000\000\027\000\000\000\033\000\000\000\033\000\000\000\027\000\000\000\004\000\000\000\033\000\000\000\027\000\000\000\004\000\000\000\022\000\000\000\t\000\000\000\t\000\000\000\t\000\000\000\t\000\000\000\t\000\000\000\t\000\000\000\t\000\000\000\004\000\000\000\t\000\000\000\t\000\000\000\004\000\000\000\022\000\000\000\t\000\000\000\004\000\000\000\022\000\000\000\025\000\000\000\024\000\000\000\024\000\000\000\024\000\000\000\024\000\000\000\024\000\000\000\024\000\000\000\024\000\000\000\003\000\000\000\024\000\000\000\024\000\000\000\003\000\000\000\004\000\000\000\024\000\000\000\003\000\000\000\004\000\000\000\022\000\000\000\024\000\000\000\024\000\000\000\024\000\000\000\024\000\000\000\024\000\000\000\024\000\000\000\024\000\000\000\007\000\000\000\024\000\000\000\024\000\000\000\007\000\000\000!\000\000\000\024\000\000\000\007\000\000\000!\000\000\000\002\000\000\000\024\000\000\000\024\000\000\000\024\000\000\000\024\000\000\000\024\000\000\000\024\000\000\000\024\000\000\000!\000\000\000\024\000\000\000\024\000\000\000!\000\000\000\002\000\000\000\024\000\000\000!\000\000\000\002\000\000\000\003\000\000\000\024\000\000\000\024\000\000\000\024\000\000\000\024\000\000\000\024\000\000\000\024\000\000\000\024\000\000\000!\000\000\000\024\000\000\000\024\000\000\000!\000\000\000\002\000\000\000\024\000\000\000!\000\000\000\002\000\000\000\007\000\000\000\024\000\000\000\024\000\000\000\024\000\000\000\024\000\000\000\024\000\000\000\024\000\000\000\024\000\000\000\006\000\000\000\024\000\000\000\024\000\000\000\006\000\000\000\006\000\000\000\024\000\000\000\006\000\000\000\006\000\000\000\003\000\000\000\t\000\000\000\t\000\000\000\t\000\000\000\t\000\000\000\t\000\000\000\t\000\000\000\t\000\000\000\025\000\000\000\t\000\000\000\t\000\000\000\025\000\000\000\006\000\000\000\t\000\000\000\025\000\000\000\006\000\000\000\006\000\000\000\t\000\000\000\t\000\000\000\t\000\000\000\t\000\000\000\t\000\000\000\t\000\000\000\t\000\000\000\026\000\000\000\t\000\000\000\t\000\000\000\026\000\000\000\037\000\000\000\t\000\000\000\026\000\000\000\037\000\000\000 \000\000\000\016\000\000\000\016\000\000\000\016\000\000\000\016\000\000\000\016\000\000\000\016\000\000\000\016\000\000\000\"\000\000\000\016\000\000\000\016\000\000\000\"\000\000\000\014\000\000\000\016\000\000\000\"\000\000\000\014\000\000\000\033\000\000\000\024\000\000\000\024\000\000\000\024\000\000\000\024\000\000\000\024\000\000\000\024\000\000\000\024\000\000\000\006\000\000\000\024\000\000\000\024\000\000\000\006\000\000\000\007\000\000\000\024\000\000\000\006\000\000\000\007\000\000\000\007\000\000\000\024\000\000\000\024\000\000\000\024\000\000\000\024\000\000\000\024\000\000\000\024\000\000\000\024\000\000\000\010\000\000\000\024\000\000\000\024\000\000\000\010\000\000\000\024\000\000\000\024\000\000\000\010\000\000\000\024\000\000\000\006\000\000\000\024\000\000\000\024\000\000\000\024\000\000\000\024\000\000\000\024\000\000\000\024\000\000\000\024\000\000\000\006\000\000\000\024\000\000\000\024\000\000\000\006\000\000\000\003\000\000\000\024\000\000\000\006\000\000\000\003\000\000\000\025\000\000\000\024\000\000\000\024\000\000\000\024\000\000\000\024\000\000\000\024\000\000\000\024\000\000\000\024\000\000\000\006\000\000\000\024\000\000\000\024\000\000\000\006\000\000\000\007\000\000\000\024\000\000\000\006\000\000\000\007\000\000\000\003\000\000\000\024\000\000\000\024\000\000\000\024\000\000\000\024\000\000\000\024\000\000\000\024\000\000\000\024\000\000\000\007\000\000\000\024\000\000\000\024\000\000\000\007\000\000\000\007\000\000\000\024\000\000\000\007\000\000\000\007\000\000\000\006\000\000\000\016\000\000\000\016\000\000\000\016\000\000\000\016\000\000\000\016\000\000\000\016\000\000\000\016\000\000\000\"\000\000\000\016\000\000\000\016\000\000\000\"\000\000\000\014\000\000\000\016\000\000\000\"\000\000\000\014\000\000\000\t\000\000\000\024\000\000\000\024\000\000\000\024\000\000\000\024\000\000\000\024\000\000\000\024\000\000\000\024\000\000\000\006\000\000\000\024\000\000\000\024\000\000\000\006\000\000\000\010\000\000\000\024\000\000\000\006\000\000\000\010\000\000\000\024\000\000\000\016\000\000\000\016\000\000\000\016\000\000\000\016\000\000\000\016\000\000\000\016\000\000\000\016\000\000\000\014\000\000\000\016\000\000\000\016\000\000\000\014\000\000\000\024\000\000\000\016\000\000\000\014\000\000\000\024\000\000\000\006\000\000\000\t\000\000\000\t\000\000\000\t\000\000\000\t\000\000\000\t\000\000\000\t\000\000\000\t\000\000\000\025\000\000\000\t\000\000\000\t\000\000\000\025\000\000\000\006\000\000\000\t\000\000\000\025\000\000\000\006\000\000\000\003\000\000\000\033\000\000\000\033\000\000\000\033\000\000\000\033\000\000\000\033\000\000\000\033\000\000\000\033\000\000\000\035\000\000\000\033\000\000\000\033\000\000\000\035\000\000\000\016\000\000\000\033\000\000\000\035\000\000\000\016\000\000\000\"\000\000\000\024\000\000\000\024\000\000\000\024\000\000\000\024\000\000\000\024\000\000\000\024\000\000\000\024\000\000\000\006\000\000\000\024\000\000\000\024\000\000\000\006\000\000\000\010\000\000\000\024\000\000\000\006\000\000\000\010\000\000\000\016\000\000\000\016\000\000\000\016\000\000\000\016\000\000\000\016\000\000\000\016\000\000\000\016\000\000\000\016\000\000\000\"\000\000\000\016\000\000\000\016\000\000\000\"\000\000\000\014\000\000\000\016\000\000\000\"\000\000\000\014\000\000\000\016\000\000\000\016\000\000\000\016\000\000\000\016\000\000\000\016\000\000\000\016\000\000\000\016\000\000\000\016\000\000\000\"\000\000\000\016\000\000\000\016\000\000\000\"\000\000\000\014\000\000\000\016\000\000\000\"\000\000\000\014\000\000\000\024\000\000\000\t\000\000\000\t\000\000\000\t\000\000\000\t\000\000\000\t\000\000\000\t\000\000\000\t\000\000\000\025\000\000\000\t\000\000\000\t\000\000\000\025\000\000\000\007\000\000\000\t\000\000\000\025\000\000\000\007\000\000\000\006\000\000\000\016\000\000\000\016\000\000\000\016\000\000\000\016\000\000\000\016\000\000\000\016\000\000\000\016\000\000\000\014\000\000\000\016\000\000\000\016\000\000\000\014\000\000\000\016\000\000\000\016\000\000\000\014\000\000\000\016\000\000\000\"\000\000\000\024\000\000\000\024\000\000\000\024\000\000\000\024\000\000\000\024\000\000\000\024\000\000\000\024\000\000\000\007\000\000\000\024\000\000\000\024\000\000\000\007\000\000\000\006\000\000\000\024\000\000\000\007\000\000\000\006\000\000\000\003\000\000\000\033\000\000\000\033\000\000\000\033\000\000\000\033\000\000\000\033\000\000\000\033\000\000\000\033\000\000\000\027\000\000\000\033\000\000\000\033\000\000\000\027\000\000\000\025\000\000\000\033\000\000\000\027\000\000\000\025\000\000\000\006\000\000\000\t\000\000\000\t\000\000\000\t\000\000\000\t\000\000\000\t\000\000\000\t\000\000\000\t\000\000\000\025\000\000\000\t\000\000\000\t\000\000\000\025\000\000\000\006\000\000\000\t\000\000\000\025\000\000\000\006\000\000\000\007\000\000\000\016\000\000\000\016\000\000\000\016\000\000\000\016\000\000\000\016\000\000\000\016\000\000\000\016\000\000\000\"\000\000\000\016\000\000\000\016\000\000\000\"\000\000\000\017\000\000\000\016\000\000\000\"\000\000\000\017\000\000\000\013\000\000\000\t\000\000\000\t\000\000\000\t\000\000\000\t\000\000\000\t\000\000\000\t\000\000\000\t\000\000\000\r\000\000\000\t\000\000\000\t\000\000\000\r\000\000\000\024\000\000\000\t\000\000\000\r\000\000\000\024\000\000\000\006\000\000\000\024\000\000\000\024\000\000\000\024\000\000\000\024\000\000\000\024\000\000\000\024\000\000\000\024\000\000\000\003\000\000\000\024\000\000\000\024\000\000\000\003\000\000\000\025\000\000\000\024\000\000\000\003\000\000\000\025\000\000\000\006\000\000\000\033\000\000\000\033\000\000\000\033\000\000\000\033\000\000\000\033\000\000\000\033\000\000\000\033\000\000\000\035\000\000\000\033\000\000\000\033\000\000\000\035\000\000\000\024\000\000\000\033\000\000\000\035\000\000\000\024\000\000\000\006\000\000\000\024\000\000\000\024\000\000\000\024\000\000\000\024\000\000\000\024\000\000\000\024\000\000\000\024\000\000\000\006\000\000\000\024\000\000\000\024\000\000\000\006\000\000\000\010\000\000\000\024\000\000\000\006\000\000\000\010\000\000\000\033\000\000\000\024\000\000\000\024\000\000\000\024\000\000\000\024\000\000\000\024\000\000\000\024\000\000\000\024\000\000\000\006\000\000\000\024\000\000\000\024\000\000\000\006\000\000\000\010\000\000\000\024\000\000\000\006\000\000\000\010\000\000\000\t\000\000\000\024\000\000\000\024\000\000\000\024\000\000\000\024\000\000\000\024\000\000\000\024\000\000\000\024\000\000\000\006\000\000\000\024\000\000\000\024\000\000\000\006\000\000\000\003\000\000\000\024\000\000\000\006\000\000\000\003\000\000\000\026\000\000\000\016\000\000\000\016\000\000\000\016\000\000\000\016\000\000\000\016\000\000\000\016\000\000\000\016\000\000\000\017\000\000\000\016\000\000\000\016\000\000\000\017\000\000\000\013\000\000\000\016\000\000\000\017\000\000\000\013\000\000\000\"\000\000\000\t\000\000\000\t\000\000\000\t\000\000\000\t\000\000\000\t\000\000\000\t\000\000\000\t\000\000\000\r\000\000\000\t\000\000\000\t\000\000\000\r\000\000\000\016\000\000\000\t\000\000\000\r\000\000\000\016\000\000\000\"\000\000\000\024\000\000\000\024\000\000\000\024\000\000\000\024\000\000\000\024\000\000\000\024\000\000\000\024\000\000\000\010\000\000\000\024\000\000\000\024\000\000\000\010\000\000\000\016\000\000\000\024\000\000\000\010\000\000\000\016\000\000\000\"\000\000\000\024\000\000\000\024\000\000\000\024\000\000\000\024\000\000\000\024\000\000\000\024\000\000\000\024\000\000\000\007\000\000\000\024\000\000\000\024\000\000\000\007\000\000\000\006\000\000\000\024\000\000\000\007\000\000\000\006\000\000\000\007\000\000\000\t\000\000\000\t\000\000\000\t\000\000\000\t\000\000\000\t\000\000\000\t\000\000\000\t\000\000\000\025\000\000\000\t\000\000\000\t\000\000\000\025\000\000\000\003\000\000\000\t\000\000\000\025\000\000\000\003\000\000\000\026\000\000\000\t\000\000\000\t\000\000\000\t\000\000\000\t\000\000\000\t\000\000\000\t\000\000\000\t\000\000\000\026\000\000\000\t\000\000\000\t\000\000\000\026\000\000\000\035\000\000\000\t\000\000\000\026\000\000\000\035\000\000\000\024\000\000\000\033\000\000\000\033\000\000\000\033\000\000\000\033\000\000\000\033\000\000\000\033\000\000\000\033\000\000\000\034\000\000\000\033\000\000\000\033\000\000\000\034\000\000\000\027\000\000\000\033\000\000\000\034\000\000\000\027\000\000\000\025\000\000\000\024\000\000\000\024\000\000\000\024\000\000\000\024\000\000\000\024\000\000\000\024\000\000\000\024\000\000\000\003\000\000\000\024\000\000\000\024\000\000\000\003\000\000\000\025\000\000\000\024\000\000\000\003\000\000\000\025\000\000\000\007\000\000\000\024\000\000\000\024\000\000\000\024\000\000\000\024\000\000\000\024\000\000\000\024\000\000\000\024\000\000\000\007\000\000\000\024\000\000\000\024\000\000\000\007\000\000\000\007\000\000\000\024\000\000\000\007\000\000\000\007\000\000\000\003\000\000\000\t\000\000\000\t\000\000\000\t\000\000\000\t\000\000\000\t\000\000\000\t\000\000\000\t\000\000\000\026\000\000\000\t\000\000\000\t\000\000\000\026\000\000\000\035\000\000\000\t\000\000\000\026\000\000\000\035\000\000\000\033\000\000\000\t\000\000\000\t\000\000\000\t\000\000\000\t\000\000\000\t\000\000\000\t\000\000\000\t\000\000\000\025\000\000\000\t\000\000\000\t\000\000\000\025\000\000\000\003\000\000\000\t\000\000\000\025\000\000\000\003\000\000\000\025\000\000\000\033\000\000\000\033\000\000\000\033\000\000\000\033\000\000\000\033\000\000\000\033\000\000\000\033\000\000\000\027\000\000\000\033\000\000\000\033\000\000\000\027\000\000\000\026\000\000\000\033\000\000\000\027\000\000\000\026\000\000\000\034\000\000\000\t\000\000\000\t\000\000\000\t\000\000\000\t\000\000\000\t\000\000\000\t\000\000\000\t\000\000\000\026\000\000\000\t\000\000\000\t\000\000\000\026\000\000\000\035\000\000\000\t\000\000\000\026\000\000\000\035\000\000\000\016\000\000\000\016\000\000\000\016\000\000\000\016\000\000\000\016\000\000\000\016\000\000\000\016\000\000\000\016\000\000\000\014\000\000\000\016\000\000\000\016\000\000\000\014\000\000\000\024\000\000\000\016\000\000\000\014\000\000\000\024\000\000\000\003\000\000\000\033\000\000\000\033\000\000\000\033\000\000\000\033\000\000\000\033\000\000\000\033\000\000\000\033\000\000\000\034\000\000\000\033\000\000\000\033\000\000\000\034\000\000\000\035\000\000\000\033\000\000\000\034\000\000\000\035\000\000\000\t\000\000\000\033\000\000\000\033\000\000\000\033\000\000\000\033\000\000\000\033\000\000\000\033\000\000\000\033\000\000\000\035\000\000\000\033\000\000\000\033\000\000\000\035\000\000\000\024\000\000\000\033\000\000\000\035\000\000\000\024\000\000\000\007\000\000\000\024\000\000\000\024\000\000\000\024\000\000\000\024\000\000\000\024\000\000\000\024\000\000\000\024\000\000\000\007\000\000\000\024\000\000\000\024\000\000\000\007\000\000\000\010\000\000\000\024\000\000\000\007\000\000\000\010\000\000\000\t\000\000\000\024\000\000\000\024\000\000\000\024\000\000\000\024\000\000\000\024\000\000\000\024\000\000\000\024\000\000\000\003\000\000\000\024\000\000\000\024\000\000\000\003\000\000\000\026\000\000\000\024\000\000\000\003\000\000\000\026\000\000\000\034\000\000\000\024\000\000\000\024\000\000\000\024\000\000\000\024\000\000\000\024\000\000\000\024\000\000\000\024\000\000\000\010\000\000\000\024\000\000\000\024\000\000\000\010\000\000\000\033\000\000\000\024\000\000\000\010\000\000\000\033\000\000\000\027\000\000\000\016\000\000\000\016\000\000\000\016\000\000\000\016\000\000\000\016\000\000\000\016\000\000\000\016\000\000\000\014\000\000\000\016\000\000\000\016\000\000\000\014\000\000\000\024\000\000\000\016\000\000\000\014\000\000\000\024\000\000\000\007\000\000\000\024\000\000\000\024\000\000\000\024\000\000\000\024\000\000\000\024\000\000\000\024\000\000\000\024\000\000\000\007\000\000\000\024\000\000\000\024\000\000\000\007\000\000\000\007\000\000\000\024\000\000\000\007\000\000\000\007\000\000\000\007\000\000\000\033\000\000\000\033\000\000\000\033\000\000\000\033\000\000\000\033\000\000\000\033\000\000\000\033\000\000\000\027\000\000\000\033\000\000\000\033\000\000\000\027\000\000\000\r\000\000\000\033\000\000\000\027\000\000\000\r\000\000\000\t\000\000\000\t\000\000\000\t\000\000\000\t\000\000\000\t\000\000\000\t\000\000\000\t\000\000\000\t\000\000\000\r\000\000\000\t\000\000\000\t\000\000\000\r\000\000\000\033\000\000\000\t\000\000\000\r\000\000\000\033\000\000\000\034\000\000\000\t\000\000\000\t\000\000\000\t\000\000\000\t\000\000\000\t\000\000\000\t\000\000\000\t\000\000\000\r\000\000\000\t\000\000\000\t\000\000\000\r\000\000\000\033\000\000\000\t\000\000\000\r\000\000\000\033\000\000\000\027\000\000\000\t\000\000\000\t\000\000\000\t\000\000\000\t\000\000\000\t\000\000\000\t\000\000\000\t\000\000\000\r\000\000\000\t\000\000\000\t\000\000\000\r\000\000\000\024\000\000\000\t\000\000\000\r\000\000\000\024\000\000\000\007\000\000\000\033\000\000\000\033\000\000\000\033\000\000\000\033\000\000\000\033\000\000\000\033\000\000\000\033\000\000\000\034\000\000\000\033\000\000\000\033\000\000\000\034\000\000\000\034\000\000\000\033\000\000\000\034\000\000\000\034\000\000\000\034\000\000\000\024\000\000\000\024\000\000\000\024\000\000\000\024\000\000\000\024\000\000\000\024\000\000\000\024\000\000\000\003\000\000\000\024\000\000\000\024\000\000\000\003\000\000\000\025\000\000\000\024\000\000\000\003\000\000\000\025\000\000\000\003\000\000\000\033\000\000\000\033\000\000\000\033\000\000\000\033\000\000\000\033\000\000\000\033\000\000\000\033\000\000\000\035\000\000\000\033\000\000\000\033\000\000\000\035\000\000\000\033\000\000\000\033\000\000\000\035\000\000\000\033\000\000\000\034\000\000\000\024\000\000\000\024\000\000\000\024\000\000\000\024\000\000\000\024\000\000\000\024\000\000\000\024\000\000\000\003\000\000\000\024\000\000\000\024\000\000\000\003\000\000\000\r\000\000\000\024\000\000\000\003\000\000\000\r\000\000\000\016\000\000\000\t\000\000\000\t\000\000\000\t\000\000\000\t\000\000\000\t\000\000\000\t\000\000\000\t\000\000\000\025\000\000\000\t\000\000\000\t\000\000\000\025\000\000\000\010\000\000\000\t\000\000\000\025\000\000\000\010\000\000\000\016\000\000\000\t\000\000\000\t\000\000\000\t\000\000\000\t\000\000\000\t\000\000\000\t\000\000\000\t\000\000\000\025\000\000\000\t\000\000\000\t\000\000\000\025\000\000\000\010\000\000\000\t\000\000\000\025\000\000\000\010\000\000\000\024\000\000\000\016\000\000\000\016\000\000\000\016\000\000\000\016\000\000\000\016\000\000\000\016\000\000\000\016\000\000\000\014\000\000\000\016\000\000\000\016\000\000\000\014\000\000\000\033\000\000\000\016\000\000\000\014\000\000\000\033\000\000\000\027\000\000\000\016\000\000\000\016\000\000\000\016\000\000\000\016\000\000\000\016\000\000\000\016\000\000\000\016\000\000\000\014\000\000\000\016\000\000\000\016\000\000\000\014\000\000\000\033\000\000\000\016\000\000\000\014\000\000\000\033\000\000\000\034\000\000\000\033\000\000\000\033\000\000\000\033\000\000\000\033\000\000\000\033\000\000\000\033\000\000\000\033\000\000\000\027\000\000\000\033\000\000\000\033\000\000\000\027\000\000\000\r\000\000\000\033\000\000\000\027\000\000\000\r\000\000\000\024\000\000\000\t\000\000\000\t\000\000\000\t\000\000\000\t\000\000\000\t\000\000\000\t\000\000\000\t\000\000\000\026\000\000\000\t\000\000\000\t\000\000\000\026\000\000\000\034\000\000\000\t\000\000\000\026\000\000\000\034\000\000\000\034\000\000\000\033\000\000\000\033\000\000\000\033\000\000\000\033\000\000\000\033\000\000\000\033\000\000\000\033\000\000\000\034\000\000\000\033\000\000\000\033\000\000\000\034\000\000\000\035\000\000\000\033\000\000\000\034\000\000\000\035\000\000\000\024\000\000\000\024\000\000\000\024\000\000\000\024\000\000\000\024\000\000\000\024\000\000\000\024\000\000\000\024\000\000\000\007\000\000\000\024\000\000\000\024\000\000\000\007\000\000\000\003\000\000\000\024\000\000\000\007\000\000\000\003\000\000\000\025\000\000\000\033\000\000\000\033\000\000\000\033\000\000\000\033\000\000\000\033\000\000\000\033\000\000\000\033\000\000\000\034\000\000\000\033\000\000\000\033\000\000\000\034\000\000\000\034\000\000\000\033\000\000\000\034\000\000\000\034\000\000\000\027\000\000\000\016\000\000\000\016\000\000\000\016\000\000\000\016\000\000\000\016\000\000\000\016\000\000\000\016\000\000\000\014\000\000\000\016\000\000\000\016\000\000\000\014\000\000\000\t\000\000\000\016\000\000\000\014\000\000\000\t\000\000\000\025\000\000\000\t\000\000\000\t\000\000\000\t\000\000\000\t\000\000\000\t\000\000\000\t\000\000\000\t\000\000\000\025\000\000\000\t\000\000\000\t\000\000\000\025\000\000\000\007\000\000\000\t\000\000\000\025\000\000\000\007\000\000\000\003\000\000\000\033\000\000\000\033\000\000\000\033\000\000\000\033\000\000\000\033\000\000\000\033\000\000\000\033\000\000\000\034\000\000\000\033\000\000\000\033\000\000\000\034\000\000\000\035\000\000\000\033\000\000\000\034\000\000\000\035\000\000\000\016\000\000\000\033\000\000\000\033\000\000\000\033\000\000\000\033\000\000\000\033\000\000\000\033\000\000\000\033\000\000\000\035\000\000\000\033\000\000\000\033\000\000\000\035\000\000\000\t\000\000\000\033\000\000\000\035\000\000\000\t\000\000\000\026\000\000\000\024\000\000\000\024\000\000\000\024\000\000\000\024\000\000\000\024\000\000\000\024\000\000\000\024\000\000\000\010\000\000\000\024\000\000\000\024\000\000\000\010\000\000\000\024\000\000\000\024\000\000\000\010\000\000\000\024\000\000\000\003\000\000\000\033\000\000\000\033\000\000\000\033\000\000\000\033\000\000\000\033\000\000\000\033\000\000\000\033\000\000\000\027\000\000\000\033\000\000\000\033\000\000\000\027\000\000\000\r\000\000\000\033\000\000\000\027\000\000\000\r\000\000\000\016\000\000\000\024\000\000\000\024\000\000\000\024\000\000\000\024\000\000\000\024\000\000\000\024\000\000\000\024\000\000\000\007\000\000\000\024\000\000\000\024\000\000\000\007\000\000\000\010\000\000\000\024\000\000\000\007\000\000\000\010\000\000\000\024\000\000\000\033\000\000\000\033\000\000\000\033\000\000\000\033\000\000\000\033\000\000\000\033\000\000\000\033\000\000\000\035\000\000\000\033\000\000\000\033\000\000\000\035\000\000\000\t\000\000\000\033\000\000\000\035\000\000\000\t\000\000\000\025\000\000\000\024\000\000\000\024\000\000\000\024\000\000\000\024\000\000\000\024\000\000\000\024\000\000\000\024\000\000\000\010\000\000\000\024\000\000\000\024\000\000\000\010\000\000\000\t\000\000\000\024\000\000\000\010\000\000\000\t\000\000\000\026\000\000\000\016\000\000\000\016\000\000\000\016\000\000\000\016\000\000\000\016\000\000\000\016\000\000\000\016\000\000\000\014\000\000\000\016\000\000\000\016\000\000\000\014\000\000\000\t\000\000\000\016\000\000\000\014\000\000\000\t\000\000\000\026\000\000\000\t\000\000\000\t\000\000\000\t\000\000\000\t\000\000\000\t\000\000\000\t\000\000\000\t\000\000\000\026\000\000\000\t\000\000\000\t\000\000\000\026\000\000\000\034\000\000\000\t\000\000\000\026\000\000\000\034\000\000\000\027\000\000\000\024\000\000\000\024\000\000\000\024\000\000\000\024\000\000\000\024\000\000\000\024\000\000\000\024\000\000\000\003\000\000\000\024\000\000\000\024\000\000\000\003\000\000\000\r\000\000\000\024\000\000\000\003\000\000\000\r\000\000\000\024\000\000\000\024\000\000\000\024\000\000\000\024\000\000\000\024\000\000\000\024\000\000\000\024\000\000\000\024\000\000\000\007\000\000\000\024\000\000\000\024\000\000\000\007\000\000\000\003\000\000\000\024\000\000\000\007\000\000\000\003\000\000\000\026\000\000\000\t\000\000\000\t\000\000\000\t\000\000\000\t\000\000\000\t\000\000\000\t\000\000\000\t\000\000\000\026\000\000\000\t\000\000\000\t\000\000\000\026\000\000\000\027\000\000\000\t\000\000\000\026\000\000\000\027\000\000\000\026\000\000\000\024\000\000\000\024\000\000\000\024\000\000\000\024\000\000\000\024\000\000\000\024\000\000\000\024\000\000\000\010\000\000\000\024\000\000\000\024\000\000\000\010\000\000\000\024\000\000\000\024\000\000\000\010\000\000\000\024\000\000\000\007\000\000\000\024\000\000\000\024\000\000\000\024\000\000\000\024\000\000\000\024\000\000\000\024\000\000\000\024\000\000\000\003\000\000\000\024\000\000\000\024\000\000\000\003\000\000\000\r\000\000\000\024\000\000\000\003\000\000\000\r\000\000\000\t\000\000\000\t\000\000\000\t\000\000\000\t\000\000\000\t\000\000\000\t\000\000\000\t\000\000\000\t\000\000\000\r\000\000\000\t\000\000\000\t\000\000\000\r\000\000\000\t\000\000\000\t\000\000\000\r\000\000\000\t\000\000\000\025\000\000\000\024\000\000\000\024\000\000\000\024\000\000\000\024\000\000\000\024\000\000\000\024\000\000\000\024\000\000\000\007\000\000\000\024\000\000\000\024\000\000\000\007\000\000\000\010\000\000\000\024\000\000\000\007\000\000\000\010\000\000\000\033\000\000\000\033\000\000\000\033\000\000\000\033\000\000\000\033\000\000\000\033\000\000\000\033\000\000\000\033\000\000\000\027\000\000\000\033\000\000\000\033\000\000\000\027\000\000\000\r\000\000\000\033\000\000\000\027\000\000\000\r\000\000\000\033\000\000\000\033\000\000\000\033\000\000\000\033\000\000\000\033\000\000\000\033\000\000\000\033\000\000\000\033\000\000\000\027\000\000\000\033\000\000\000\033\000\000\000\027\000\000\000\025\000\000\000\033\000\000\000\027\000\000\000\025\000\000\000\007\000\000\000\033\000\000\000\033\000\000\000\033\000\000\000\033\000\000\000\033\000\000\000\033\000\000\000\033\000\000\000\035\000\000\000\033\000\000\000\033\000\000\000\035\000\000\000\033\000\000\000\033\000\000\000\035\000\000\000\033\000\000\000\027\000\000\000\t\000\000\000\t\000\000\000\t\000\000\000\t\000\000\000\t\000\000\000\t\000\000\000\t\000\000\000\026\000\000\000\t\000\000\000\t\000\000\000\026\000\000\000\035\000\000\000\t\000\000\000\026\000\000\000\035\000\000\000\t\000\000\000\033\000\000\000\033\000\000\000\033\000\000\000\033\000\000\000\033\000\000\000\033\000\000\000\033\000\000\000\034\000\000\000\033\000\000\000\033\000\000\000\034\000\000\000\035\000\000\000\033\000\000\000\034\000\000\000\035\000\000\000\033\000\000\000\t\000\000\000\t\000\000\000\t\000\000\000\t\000\000\000\t\000\000\000\t\000\000\000\t\000\000\000\r\000\000\000\t\000\000\000\t\000\000\000\r\000\000\000\024\000\000\000\t\000\000\000\r\000\000\000\024\000\000\000\003\000\000\000\t\000\000\000\t\000\000\000\t\000\000\000\t\000\000\000\t\000\000\000\t\000\000\000\t\000\000\000\025\000\000\000\t\000\000\000\t\000\000\000\025\000\000\000\007\000\000\000\t\000\000\000\025\000\000\000\007\000\000\000\007\000\000\000\033\000\000\000\033\000\000\000\033\000\000\000\033\000\000\000\033\000\000\000\033\000\000\000\033\000\000\000\034\000\000\000\033\000\000\000\033\000\000\000\034\000\000\000\027\000\000\000\033\000\000\000\034\000\000\000\027\000\000\000\026\000\000\000\t\000\000\000\t\000\000\000\t\000\000\000\t\000\000\000\t\000\000\000\t\000\000\000\t\000\000\000\026\000\000\000\t\000\000\000\t\000\000\000\026\000\000\000\027\000\000\000\t\000\000\000\026\000\000\000\027\000\000\000\025\000\000\000\024\000\000\000\024\000\000\000\024\000\000\000\024\000\000\000\024\000\000\000\024\000\000\000\024\000\000\000\010\000\000\000\024\000\000\000\024\000\000\000\010\000\000\000\t\000\000\000\024\000\000\000\010\000\000\000\t\000\000\000\025\000\000\000\t\000\000\000\t\000\000\000\t\000\000\000\t\000\000\000\t\000\000\000\t\000\000\000\t\000\000\000\025\000\000\000\t\000\000\000\t\000\000\000\025\000\000\000\010\000\000\000\t\000\000\000\025\000\000\000\010\000\000\000\t\000\000\000\033\000\000\000\033\000\000\000\033\000\000\000\033\000\000\000\033\000\000\000\033\000\000\000\033\000\000\000\027\000\000\000\033\000\000\000\033\000\000\000\027\000\000\000\025\000\000\000\033\000\000\000\027\000\000\000\025\000\000\000\003\000\000\000\024\000\000\000\024\000\000\000\024\000\000\000\024\000\000\000\024\000\000\000\024\000\000\000\024\000\000\000\003\000\000\000\024\000\000\000\024\000\000\000\003\000\000\000\r\000\000\000\024\000\000\000\003\000\000\000\r\000\000\000\033\000\000\000\033\000\000\000\033\000\000\000\033\000\000\000\033\000\000\000\033\000\000\000\033\000\000\000\033\000\000\000\027\000\000\000\033\000\000\000\033\000\000\000\027\000\000\000\026\000\000\000\033\000\000\000\027\000\000\000\026\000\000\000\027\000\000\000\t\000\000\000\t\000\000\000\t\000\000\000\t\000\000\000\t\000\000\000\t\000\000\000\t\000\000\000\025\000\000\000\t\000\000\000\t\000\000\000\025\000\000\000\010\000\000\000\t\000\000\000\025\000\000\000\010\000\000\000\033\000\000\000\t\000\000\000\t\000\000\000\t\000\000\000\t\000\000\000\t\000\000\000\t\000\000\000\t\000\000\000\r\000\000\000\t\000\000\000\t\000\000\000\r\000\000\000\t\000\000\000\t\000\000\000\r\000\000\000\t\000\000\000\026\000\000\000\024\000\000\000\024\000\000\000\024\000\000\000\024\000\000\000\024\000\000\000\024\000\000\000\024\000\000\000\007\000\000\000\024\000\000\000\024\000\000\000\007\000\000\000\010\000\000\000\024\000\000\000\007\000\000\000\010\000\000\000\016\000\000\000\024\000\000\000\024\000\000\000\024\000\000\000\024\000\000\000\024\000\000\000\024\000\000\000\024\000\000\000\010\000\000\000\024\000\000\000\024\000\000\000\010\000\000\000\033\000\000\000\024\000\000\000\010\000\000\000\033\000\000\000\034\000\000\000\033\000\000\000\033\000\000\000\033\000\000\000\033\000\000\000\033\000\000\000\033\000\000\000\033\000\000\000\035\000\000\000\033\000\000\000\033\000\000\000\035\000\000\000\024\000\000\000\033\000\000\000\035\000\000\000\024\000\000\000\003\000\000\000\024\000\000\000\024\000\000\000\024\000\000\000\024\000\000\000\024\000\000\000\024\000\000\000\024\000\000\000\003\000\000\000\024\000\000\000\024\000\000\000\003\000\000\000\026\000\000\000\024\000\000\000\003\000\000\000\026\000\000\000\027\000\000\000\t\000\000\000\t\000\000\000\t\000\000\000\t\000\000\000\t\000\000\000\t\000\000\000\t\000\000\000\004\000\000\000\t\000\000\000\t\000\000\000\004\000\000\000\022\000\000\000\016\000\000\000\016\000\000\000\016\000\000\000\016\000\000\000\016\000\000\000\016\000\000\000\016\000\000\000\"\000\000\000\016\000\000\000\016\000\000\000\"\000\000\000\"\000\000\000\033\000\000\000\033\000\000\000\033\000\000\000\033\000\000\000\033\000\000\000\033\000\000\000\033\000\000\000\037\000\000\000\033\000\000\000\033\000\000\000\037\000\000\000 